// Auto-generated — do not edit
// Dense BGL model for ESP32
// Size: 17692 bytes (17.3 KB)

#ifndef DENSE_BGL_MODEL_H
#define DENSE_BGL_MODEL_H

#include <stdint.h>

const unsigned int dense_model_len = 17692;

const uint8_t dense_model_data[] = {
  0x1c, 0x00, 0x00, 0x00, 0x54, 0x46, 0x4c, 0x33, 0x14, 0x00, 0x20, 0x00, 0x1c, 0x00, 0x18, 0x00,
  0x14, 0x00, 0x10, 0x00, 0x0c, 0x00, 0x00, 0x00, 0x08, 0x00, 0x04, 0x00, 0x14, 0x00, 0x00, 0x00,
  0x1c, 0x00, 0x00, 0x00, 0x8c, 0x00, 0x00, 0x00, 0xe4, 0x00, 0x00, 0x00, 0x5c, 0x3c, 0x00, 0x00,
  0x6c, 0x3c, 0x00, 0x00, 0x88, 0x44, 0x00, 0x00, 0x03, 0x00, 0x00, 0x00, 0x01, 0x00, 0x00, 0x00,
  0x04, 0x00, 0x00, 0x00, 0x96, 0xc2, 0xff, 0xff, 0x0c, 0x00, 0x00, 0x00, 0x1c, 0x00, 0x00, 0x00,
  0x3c, 0x00, 0x00, 0x00, 0x0f, 0x00, 0x00, 0x00, 0x73, 0x65, 0x72, 0x76, 0x69, 0x6e, 0x67, 0x5f,
  0x64, 0x65, 0x66, 0x61, 0x75, 0x6c, 0x74, 0x00, 0x01, 0x00, 0x00, 0x00, 0x04, 0x00, 0x00, 0x00,
  0x90, 0xff, 0xff, 0xff, 0x10, 0x00, 0x00, 0x00, 0x04, 0x00, 0x00, 0x00, 0x08, 0x00, 0x00, 0x00,
  0x6f, 0x75, 0x74, 0x70, 0x75, 0x74, 0x5f, 0x30, 0x00, 0x00, 0x00, 0x00, 0x01, 0x00, 0x00, 0x00,
  0x04, 0x00, 0x00, 0x00, 0x9e, 0xc2, 0xff, 0xff, 0x04, 0x00, 0x00, 0x00, 0x0f, 0x00, 0x00, 0x00,
  0x6b, 0x65, 0x72, 0x61, 0x73, 0x5f, 0x74, 0x65, 0x6e, 0x73, 0x6f, 0x72, 0x5f, 0x31, 0x37, 0x00,
  0x02, 0x00, 0x00, 0x00, 0x34, 0x00, 0x00, 0x00, 0x04, 0x00, 0x00, 0x00, 0xdc, 0xff, 0xff, 0xff,
  0x13, 0x00, 0x00, 0x00, 0x04, 0x00, 0x00, 0x00, 0x13, 0x00, 0x00, 0x00, 0x43, 0x4f, 0x4e, 0x56,
  0x45, 0x52, 0x53, 0x49, 0x4f, 0x4e, 0x5f, 0x4d, 0x45, 0x54, 0x41, 0x44, 0x41, 0x54, 0x41, 0x00,
  0x08, 0x00, 0x0c, 0x00, 0x08, 0x00, 0x04, 0x00, 0x08, 0x00, 0x00, 0x00, 0x12, 0x00, 0x00, 0x00,
  0x04, 0x00, 0x00, 0x00, 0x13, 0x00, 0x00, 0x00, 0x6d, 0x69, 0x6e, 0x5f, 0x72, 0x75, 0x6e, 0x74,
  0x69, 0x6d, 0x65, 0x5f, 0x76, 0x65, 0x72, 0x73, 0x69, 0x6f, 0x6e, 0x00, 0x14, 0x00, 0x00, 0x00,
  0x74, 0x3b, 0x00, 0x00, 0x6c, 0x3b, 0x00, 0x00, 0xdc, 0x3a, 0x00, 0x00, 0xcc, 0x39, 0x00, 0x00,
  0xb8, 0x39, 0x00, 0x00, 0x28, 0x39, 0x00, 0x00, 0x18, 0x19, 0x00, 0x00, 0x08, 0x01, 0x00, 0x00,
  0xf4, 0x00, 0x00, 0x00, 0xe0, 0x00, 0x00, 0x00, 0xcc, 0x00, 0x00, 0x00, 0xc4, 0x00, 0x00, 0x00,
  0xbc, 0x00, 0x00, 0x00, 0xb4, 0x00, 0x00, 0x00, 0xac, 0x00, 0x00, 0x00, 0xa4, 0x00, 0x00, 0x00,
  0x9c, 0x00, 0x00, 0x00, 0x94, 0x00, 0x00, 0x00, 0x74, 0x00, 0x00, 0x00, 0x04, 0x00, 0x00, 0x00,
  0x6a, 0xc3, 0xff, 0xff, 0x04, 0x00, 0x00, 0x00, 0x60, 0x00, 0x00, 0x00, 0x10, 0x00, 0x00, 0x00,
  0x00, 0x00, 0x00, 0x00, 0x08, 0x00, 0x0e, 0x00, 0x08, 0x00, 0x04, 0x00, 0x08, 0x00, 0x00, 0x00,
  0x10, 0x00, 0x00, 0x00, 0x24, 0x00, 0x00, 0x00, 0x00, 0x00, 0x06, 0x00, 0x08, 0x00, 0x04, 0x00,
  0x06, 0x00, 0x00, 0x00, 0x04, 0x00, 0x00, 0x00, 0x00, 0x00, 0x00, 0x00, 0x0c, 0x00, 0x18, 0x00,
  0x14, 0x00, 0x10, 0x00, 0x0c, 0x00, 0x04, 0x00, 0x0c, 0x00, 0x00, 0x00, 0x53, 0xe0, 0xc0, 0x76,
  0x62, 0x55, 0xff, 0x0b, 0x02, 0x00, 0x00, 0x00, 0x02, 0x00, 0x00, 0x00, 0x04, 0x00, 0x00, 0x00,
  0x06, 0x00, 0x00, 0x00, 0x32, 0x2e, 0x32, 0x30, 0x2e, 0x30, 0x00, 0x00, 0xd6, 0xc3, 0xff, 0xff,
  0x04, 0x00, 0x00, 0x00, 0x10, 0x00, 0x00, 0x00, 0x31, 0x2e, 0x31, 0x31, 0x2e, 0x30, 0x00, 0x00,
  0x00, 0x00, 0x00, 0x00, 0x00, 0x00, 0x00, 0x00, 0x6c, 0xbd, 0xff, 0xff, 0x70, 0xbd, 0xff, 0xff,
  0x74, 0xbd, 0xff, 0xff, 0x78, 0xbd, 0xff, 0xff, 0x7c, 0xbd, 0xff, 0xff, 0x80, 0xbd, 0xff, 0xff,
  0x84, 0xbd, 0xff, 0xff, 0x0e, 0xc4, 0xff, 0xff, 0x04, 0x00, 0x00, 0x00, 0x04, 0x00, 0x00, 0x00,
  0x18, 0x00, 0x00, 0x00, 0x1e, 0xc4, 0xff, 0xff, 0x04, 0x00, 0x00, 0x00, 0x04, 0x00, 0x00, 0x00,
  0x00, 0x00, 0x00, 0x00, 0x2e, 0xc4, 0xff, 0xff, 0x04, 0x00, 0x00, 0x00, 0x04, 0x00, 0x00, 0x00,
  0x01, 0x00, 0x00, 0x00, 0x3e, 0xc4, 0xff, 0xff, 0x04, 0x00, 0x00, 0x00, 0x00, 0x18, 0x00, 0x00,
  0xca, 0x9e, 0xce, 0x3d, 0x78, 0xa7, 0x04, 0xbe, 0xbc, 0x98, 0x2a, 0x3e, 0xbd, 0x36, 0x76, 0x3e,
  0x18, 0x69, 0x85, 0x3d, 0x8f, 0xa0, 0xd5, 0xbc, 0x07, 0xa2, 0x8b, 0x3a, 0x01, 0x11, 0x1b, 0x3e,
  0x90, 0x34, 0x74, 0xbe, 0xd8, 0xd4, 0x8d, 0xbe, 0x98, 0xef, 0xa3, 0xbc, 0x3a, 0x7e, 0x87, 0xbd,
  0x17, 0xa2, 0x46, 0x3e, 0xca, 0xfb, 0x53, 0xbb, 0x45, 0x65, 0x6c, 0x3e, 0x3b, 0xe2, 0x93, 0xbd,
  0xec, 0x44, 0xc7, 0xbd, 0x00, 0xbc, 0x2d, 0x3e, 0x9d, 0x97, 0x82, 0x3e, 0x92, 0x81, 0x1d, 0x3e,
  0xce, 0xc5, 0x47, 0xbe, 0x65, 0x55, 0x37, 0x3e, 0xbe, 0xdc, 0x0a, 0xbd, 0x62, 0xd5, 0x62, 0xbe,
  0x2f, 0xe4, 0x52, 0x3d, 0xc8, 0x5f, 0x88, 0xbd, 0x28, 0xe5, 0x13, 0x3e, 0x40, 0x31, 0x04, 0xbe,
  0xa0, 0x6f, 0x55, 0x3e, 0x46, 0xd1, 0x55, 0xbe, 0x4e, 0xf1, 0x52, 0x3e, 0xa2, 0x6d, 0x2a, 0xbe,
  0x84, 0xbb, 0xb1, 0x3d, 0x10, 0xdd, 0x05, 0x3d, 0x3c, 0x83, 0x7e, 0x3e, 0xf8, 0x79, 0x14, 0x3e,
  0x80, 0xc8, 0xa2, 0x3d, 0x8b, 0x3c, 0x52, 0xbe, 0x6d, 0x6a, 0x41, 0xbe, 0x2b, 0xb1, 0x65, 0x3e,
  0x14, 0x2f, 0xce, 0x3d, 0x41, 0x24, 0x8c, 0x3e, 0x32, 0xc1, 0x7d, 0x3e, 0xf3, 0xeb, 0x0d, 0x3e,
  0x92, 0xba, 0x88, 0x3e, 0x2e, 0xb9, 0x41, 0x3e, 0x11, 0xab, 0x55, 0xbe, 0x0b, 0x9e, 0x2f, 0x3e,
  0x5a, 0x4f, 0x6f, 0xbe, 0x7e, 0xf4, 0xe2, 0xbc, 0xd1, 0x36, 0x6a, 0x3d, 0x6d, 0x41, 0x4b, 0x3e,
  0xae, 0xfa, 0x6b, 0xbe, 0x70, 0x8b, 0x2b, 0xbe, 0x71, 0x2e, 0x26, 0xbe, 0xa0, 0x85, 0x6f, 0xbe,
  0x7d, 0x22, 0x28, 0xbe, 0x55, 0x92, 0x8c, 0x3d, 0x86, 0x78, 0x90, 0xbe, 0x32, 0x5a, 0x94, 0x3b,
  0x26, 0x81, 0x69, 0x3e, 0x4b, 0x29, 0x81, 0xbe, 0xe5, 0xf1, 0x00, 0x3e, 0xd6, 0xfa, 0x64, 0xbd,
  0x01, 0x94, 0x8b, 0xbe, 0x95, 0x8d, 0x25, 0x3e, 0x04, 0xe4, 0x11, 0x3e, 0xa1, 0x14, 0x88, 0xbe,
  0x9c, 0x16, 0x82, 0x3d, 0x85, 0x14, 0xfe, 0x3d, 0x58, 0x46, 0xc1, 0x3d, 0xe1, 0x58, 0x0b, 0xbe,
  0x78, 0xf7, 0x82, 0x38, 0xfa, 0x0c, 0x38, 0x3e, 0x3e, 0x25, 0x67, 0xbe, 0x74, 0x17, 0x73, 0xbe,
  0x03, 0xaa, 0xcd, 0x3d, 0xd5, 0x11, 0x46, 0xbd, 0x1c, 0xcf, 0xbd, 0x3d, 0x1c, 0x56, 0x82, 0x3d,
  0xea, 0x0e, 0x94, 0xbd, 0x44, 0xe3, 0xab, 0xbd, 0x3a, 0xa0, 0xa7, 0x3d, 0xd0, 0xd8, 0x33, 0x3e,
  0x40, 0xe5, 0x59, 0xbe, 0x98, 0xda, 0x0f, 0x3e, 0x29, 0x3b, 0x64, 0x3d, 0xfa, 0xba, 0x2e, 0x3c,
  0xef, 0x64, 0x37, 0xbe, 0x8e, 0x41, 0x08, 0x3e, 0x56, 0xb2, 0xc2, 0x3c, 0x69, 0x53, 0xaf, 0xbc,
  0x54, 0x4a, 0xc2, 0xbd, 0x61, 0x9a, 0x1a, 0x3e, 0x7b, 0x8d, 0x33, 0xbe, 0xfb, 0x13, 0x86, 0x3e,
  0x30, 0xa6, 0x5b, 0x3d, 0xba, 0x8f, 0x4a, 0xbe, 0x18, 0xa2, 0x71, 0x3d, 0x9a, 0x0e, 0xf9, 0xbd,
  0x18, 0xfc, 0x75, 0x3d, 0x00, 0x25, 0xd9, 0x3b, 0x80, 0xc4, 0x4e, 0x3c, 0xf6, 0x29, 0x6e, 0xbe,
  0xb0, 0x95, 0x9b, 0x3c, 0x34, 0xc7, 0xcd, 0xbd, 0x9c, 0x46, 0x6a, 0xbd, 0x88, 0x5a, 0x45, 0xbe,
  0xa4, 0x6b, 0xe3, 0xbd, 0xa8, 0x6a, 0x72, 0xbe, 0x10, 0x37, 0x48, 0xbc, 0x6c, 0xcb, 0x00, 0xbe,
  0x80, 0x5b, 0x5f, 0xbb, 0x2c, 0xfb, 0x48, 0x3e, 0xd0, 0x1e, 0x16, 0x3e, 0xb2, 0x6b, 0x50, 0x3e,
  0x1a, 0xb4, 0x02, 0xbe, 0x17, 0x63, 0x6b, 0xbe, 0x83, 0x72, 0x48, 0xbe, 0x30, 0x12, 0xbf, 0x3c,
  0xeb, 0x6e, 0xcd, 0x3d, 0xda, 0x62, 0xfb, 0xbc, 0x45, 0xfb, 0x0a, 0xbe, 0x4c, 0xf1, 0x32, 0xbd,
  0x92, 0xca, 0x82, 0xbe, 0x3b, 0xe5, 0xbc, 0xbd, 0x7b, 0xd6, 0x67, 0xbe, 0x54, 0xc9, 0x48, 0xbe,
  0xfc, 0x5a, 0x60, 0x3d, 0x95, 0x7f, 0x2f, 0xbe, 0xb7, 0x4c, 0xd9, 0x3d, 0x17, 0x26, 0xa2, 0x3d,
  0x4e, 0x1f, 0x02, 0xbe, 0x12, 0xe8, 0x62, 0x3e, 0xc4, 0x8f, 0x58, 0x3e, 0x4e, 0x4c, 0x4b, 0x3e,
  0x19, 0x2f, 0x24, 0xbe, 0xd5, 0x44, 0xde, 0xbd, 0xfd, 0xa8, 0xf0, 0xbd, 0x5c, 0x8f, 0x61, 0xbe,
  0xa8, 0xf2, 0x1c, 0xbe, 0x40, 0x41, 0x40, 0xbd, 0xa3, 0xb9, 0x8d, 0xbd, 0x3b, 0x87, 0xe6, 0x3d,
  0x24, 0xd4, 0x0f, 0x3e, 0xd5, 0x07, 0xce, 0xbd, 0xc9, 0xee, 0x3f, 0xbe, 0x61, 0x24, 0x6b, 0x3e,
  0x36, 0xa0, 0x06, 0xbe, 0x7b, 0x7b, 0x45, 0x3e, 0xdf, 0xda, 0x8d, 0x3d, 0xa4, 0xdb, 0x4b, 0xbd,
  0xf0, 0x6a, 0x43, 0xbe, 0x5d, 0x14, 0x13, 0xbe, 0x77, 0x52, 0x09, 0xbe, 0xe6, 0x52, 0x84, 0x3e,
  0x05, 0xce, 0x56, 0x3d, 0x02, 0xe7, 0x41, 0x3e, 0x2e, 0xf3, 0x34, 0xbe, 0x00, 0xcc, 0x30, 0xbe,
  0x79, 0xb2, 0x8b, 0xbd, 0x4d, 0x03, 0x1c, 0xbe, 0xf7, 0x9d, 0x38, 0x3e, 0x5c, 0x59, 0xab, 0xbd,
  0xef, 0x44, 0xbc, 0x3d, 0xc2, 0xee, 0xcb, 0x3d, 0x8b, 0xba, 0x7a, 0xbb, 0x92, 0x77, 0xdc, 0x3e,
  0xac, 0x2e, 0x9d, 0xbd, 0x7a, 0xb1, 0x48, 0xbe, 0x42, 0xf6, 0x16, 0xbd, 0x08, 0x24, 0xf4, 0xbd,
  0xc3, 0x04, 0x39, 0x3e, 0xb4, 0xbf, 0x9e, 0x3d, 0x5e, 0xcf, 0x24, 0xbe, 0xc3, 0xaf, 0x4c, 0xbe,
  0x11, 0xa6, 0x66, 0x3e, 0x35, 0x2f, 0x31, 0xbd, 0xfb, 0x25, 0x08, 0xbe, 0x4b, 0x37, 0x61, 0xbd,
  0xa5, 0x30, 0xf6, 0xbd, 0x30, 0xf4, 0x9c, 0xbc, 0x43, 0x54, 0x3b, 0x3e, 0x88, 0x3a, 0x62, 0xbe,
  0xe8, 0xbe, 0xf6, 0xbb, 0x5d, 0x11, 0x4f, 0xbd, 0xa6, 0xdc, 0x81, 0x3d, 0xae, 0xc5, 0x31, 0x3e,
  0xe0, 0x1a, 0x2f, 0xbe, 0x85, 0x59, 0x84, 0xbe, 0x88, 0xd3, 0xda, 0x3d, 0x39, 0xf0, 0x1c, 0x3d,
  0x67, 0xb1, 0x95, 0x3d, 0x42, 0x39, 0x55, 0xbe, 0x82, 0x53, 0xd3, 0x3d, 0x71, 0xb6, 0x4c, 0x3e,
  0x38, 0xa4, 0x09, 0x3e, 0xae, 0x40, 0x06, 0x3d, 0x16, 0xfd, 0xe9, 0x3d, 0x1a, 0x34, 0x2a, 0xbe,
  0xbf, 0x9f, 0x40, 0xbc, 0xe2, 0x95, 0x46, 0xbe, 0xc5, 0x8e, 0x6e, 0x3d, 0x8d, 0xc2, 0x64, 0xbe,
  0xb7, 0xa4, 0xb7, 0xbd, 0x2f, 0x7e, 0x12, 0xbe, 0x39, 0x83, 0xbc, 0xbb, 0x5c, 0x0b, 0x80, 0x3c,
  0x5f, 0xfc, 0x27, 0x3e, 0xb9, 0xfe, 0x67, 0x3e, 0xa4, 0xbf, 0x0c, 0x3e, 0x02, 0x95, 0xc8, 0xbd,
  0x46, 0x6d, 0xcb, 0x3d, 0xba, 0x80, 0xeb, 0x3c, 0xe4, 0x79, 0x1a, 0xbe, 0x91, 0x24, 0x2c, 0x3e,
  0x39, 0x7a, 0x11, 0xbc, 0x4a, 0x89, 0x76, 0xbe, 0x74, 0x55, 0x9a, 0x3d, 0x81, 0x43, 0x46, 0x3e,
  0xf3, 0x9b, 0x2f, 0x3e, 0xa4, 0x42, 0xb8, 0x3d, 0x54, 0x3d, 0x21, 0xbe, 0xf7, 0x44, 0x13, 0xbc,
  0xcb, 0x0a, 0x83, 0xbe, 0xce, 0xa5, 0x94, 0x3d, 0xc4, 0x1a, 0xbc, 0xbb, 0xa5, 0x6f, 0xfd, 0x3c,
  0x9a, 0xe7, 0x6f, 0x3e, 0x48, 0x7b, 0x88, 0xbe, 0xc5, 0xfb, 0x79, 0xbe, 0xd1, 0xa8, 0x6b, 0x3e,
  0xda, 0x91, 0x88, 0xbe, 0x18, 0x13, 0x37, 0x3e, 0xde, 0x22, 0xcb, 0xbd, 0x22, 0x8e, 0xe1, 0xbc,
  0xf9, 0x76, 0x18, 0x3d, 0x7b, 0x03, 0xde, 0xbd, 0x76, 0x31, 0x7a, 0xbd, 0x9d, 0x7f, 0x70, 0x3e,
  0x75, 0x25, 0x72, 0xbe, 0x00, 0x02, 0x0b, 0x3e, 0xed, 0xc9, 0x4f, 0x3d, 0x9f, 0x9d, 0x27, 0x3e,
  0x6f, 0x43, 0x73, 0xbe, 0x2f, 0xb7, 0x45, 0x3e, 0x34, 0x57, 0x52, 0xbe, 0x2c, 0x48, 0x7d, 0x3d,
  0x1f, 0x7b, 0xa0, 0x3d, 0xa7, 0x0a, 0xca, 0x3c, 0xb1, 0x3d, 0xba, 0xbd, 0x60, 0x8d, 0x1c, 0xbc,
  0x1a, 0x31, 0xf5, 0x3b, 0x09, 0x1f, 0x2a, 0xbe, 0x3a, 0xf0, 0x3d, 0xbe, 0x2f, 0x17, 0x4e, 0xbd,
  0xaf, 0xce, 0x2d, 0x3e, 0x57, 0xb2, 0x0a, 0x3e, 0x20, 0x59, 0xdb, 0xbd, 0xfc, 0x4a, 0x89, 0x3e,
  0x6d, 0x1b, 0x51, 0xbe, 0x79, 0x2a, 0x83, 0x3e, 0x59, 0x9a, 0x80, 0x3e, 0xd6, 0x9c, 0x2e, 0xbe,
  0x57, 0x9c, 0x53, 0x3d, 0x71, 0x0a, 0x08, 0x3e, 0xf9, 0x5f, 0x8e, 0x3d, 0xe6, 0x99, 0xc8, 0xbd,
  0x5b, 0xe2, 0xcf, 0x3c, 0xdf, 0x90, 0x3b, 0x3e, 0x0c, 0x18, 0x7d, 0x3e, 0xf3, 0xa0, 0x49, 0x3d,
  0x7e, 0xab, 0x5d, 0xbd, 0x9a, 0xfe, 0x36, 0xbe, 0x65, 0x57, 0x2a, 0x3e, 0x62, 0x46, 0xc0, 0xbd,
  0x7b, 0xa9, 0x86, 0x3e, 0x34, 0x76, 0x87, 0xbd, 0x3b, 0xb7, 0x02, 0xbe, 0x30, 0x48, 0x09, 0xbe,
  0x05, 0x3c, 0xde, 0xbd, 0xc7, 0x5e, 0xed, 0xbd, 0x2e, 0x1b, 0x37, 0x3e, 0xe1, 0x6b, 0x73, 0xbe,
  0xc7, 0x05, 0x9b, 0xbd, 0x1d, 0x19, 0x71, 0x3c, 0x34, 0x63, 0x07, 0x3e, 0xcf, 0xc6, 0xc0, 0xbd,
  0x38, 0x12, 0x71, 0xbd, 0x25, 0x04, 0x1e, 0xbe, 0xb8, 0x9d, 0x49, 0xbe, 0x84, 0x3d, 0xd6, 0x3d,
  0xe3, 0x4f, 0xed, 0xbd, 0x01, 0xb1, 0x84, 0xbe, 0xe4, 0x8a, 0x6f, 0xbe, 0x24, 0x33, 0x26, 0x3d,
  0x7c, 0xf2, 0x49, 0x3d, 0x03, 0xe9, 0x5f, 0x3d, 0x2d, 0xa7, 0xf5, 0xbd, 0x2e, 0xa1, 0x64, 0xbc,
  0x36, 0x71, 0x79, 0xba, 0xb1, 0x56, 0x31, 0xbe, 0xb6, 0x90, 0x64, 0x3e, 0x17, 0x00, 0x99, 0x3b,
  0x3a, 0xff, 0x62, 0xbe, 0xf6, 0xc6, 0x82, 0x3c, 0x82, 0x37, 0x78, 0xbe, 0x6c, 0x10, 0x03, 0x3e,
  0x28, 0xbf, 0x7a, 0x3e, 0xda, 0xb5, 0x88, 0xbc, 0xec, 0xc4, 0xca, 0xbd, 0x7c, 0xa1, 0x8e, 0xbd,
  0xef, 0xb1, 0xb9, 0xbc, 0xa6, 0xde, 0xda, 0x3d, 0x6d, 0xe7, 0x63, 0x3e, 0xad, 0xd1, 0x93, 0x3d,
  0x70, 0xd3, 0x0e, 0x3d, 0x48, 0xd9, 0x53, 0xbc, 0x0f, 0xad, 0x07, 0x3e, 0x74, 0x4e, 0x10, 0xbe,
  0xf5, 0x5a, 0xfc, 0x3d, 0x6a, 0x56, 0x4f, 0xbe, 0xa9, 0x1b, 0x80, 0xbd, 0x3a, 0x4e, 0x33, 0x3c,
  0x19, 0xc8, 0x64, 0xbe, 0x7e, 0xdb, 0x96, 0xbd, 0xf1, 0x29, 0x50, 0x3e, 0x7c, 0xf6, 0x18, 0x3e,
  0x7a, 0xc1, 0xc8, 0x3d, 0x27, 0xb5, 0x80, 0x3d, 0xd9, 0x54, 0x02, 0xbe, 0x0a, 0xa9, 0x80, 0x3d,
  0x62, 0x5a, 0xe2, 0x3d, 0xbc, 0x16, 0x25, 0xbe, 0x77, 0x4a, 0x26, 0x3e, 0xaa, 0x79, 0x79, 0xbe,
  0xee, 0x2f, 0x58, 0xbe, 0x31, 0x86, 0x4e, 0x3e, 0x42, 0xfe, 0x15, 0x3c, 0x75, 0xe3, 0x6f, 0x3e,
  0x44, 0x84, 0x64, 0xbd, 0x27, 0x4d, 0x72, 0xbe, 0xe2, 0x50, 0x66, 0xbe, 0xea, 0x32, 0x75, 0x3e,
  0xb8, 0xcf, 0x2d, 0x3e, 0xb4, 0x5c, 0x77, 0xbe, 0x39, 0x34, 0x1c, 0xbd, 0xbc, 0x74, 0x5d, 0x3e,
  0x86, 0xdc, 0xe2, 0x3d, 0x6b, 0x0c, 0x1a, 0xbd, 0x03, 0xae, 0x4a, 0xbe, 0xab, 0x45, 0x76, 0xbe,
  0x9b, 0x60, 0xaa, 0x3d, 0x9a, 0x44, 0x89, 0x3c, 0x0c, 0x37, 0x33, 0xbd, 0x9c, 0xb8, 0xd3, 0x3d,
  0x0e, 0xf7, 0x61, 0x3e, 0x1e, 0xc2, 0x88, 0xbe, 0xfa, 0x38, 0x0e, 0x3e, 0x33, 0x4f, 0x44, 0x3b,
  0xed, 0x86, 0xc3, 0xbd, 0x65, 0xed, 0x4a, 0xbe, 0xce, 0xc1, 0x78, 0xbe, 0x25, 0xb6, 0x0c, 0xbe,
  0x8f, 0xa0, 0xa6, 0x3d, 0x19, 0xbe, 0x45, 0xbe, 0x26, 0x21, 0x68, 0xbe, 0xd4, 0x73, 0x87, 0x3c,
  0x38, 0xfa, 0x60, 0x3d, 0xf2, 0x98, 0x20, 0x3d, 0x06, 0x25, 0x8e, 0xbd, 0xde, 0xf5, 0x43, 0xbe,
  0x89, 0xeb, 0x72, 0x3e, 0xfc, 0x21, 0x39, 0x3e, 0xdd, 0x68, 0x82, 0x3e, 0xd7, 0x29, 0x85, 0xbd,
  0xc1, 0x3b, 0xd4, 0x3c, 0xf1, 0xd7, 0x1d, 0x3d, 0x04, 0x63, 0x99, 0xbd, 0xd9, 0xf5, 0x3a, 0x3e,
  0xb9, 0xac, 0xda, 0xbc, 0x05, 0x42, 0xae, 0xbd, 0x5a, 0x84, 0xd9, 0x3c, 0xa4, 0xdd, 0x69, 0x3d,
  0x4a, 0x79, 0xbf, 0x3d, 0x21, 0x7a, 0x16, 0x3d, 0x98, 0x13, 0xeb, 0x3d, 0xad, 0x62, 0x23, 0x3d,
  0x2d, 0xe0, 0x28, 0x3e, 0xd2, 0x08, 0x40, 0x3e, 0x1b, 0xd1, 0x2b, 0xbe, 0x14, 0x17, 0xff, 0x3d,
  0xe2, 0xe6, 0xd4, 0x3d, 0x22, 0x93, 0x67, 0x3e, 0xa4, 0xdc, 0xfa, 0xbd, 0x06, 0x3b, 0x1c, 0xbe,
  0x12, 0xca, 0xaa, 0xbd, 0x00, 0x4c, 0xcf, 0x3d, 0x00, 0xe8, 0x14, 0xbb, 0xb0, 0x06, 0xfc, 0xbd,
  0x97, 0xaf, 0x5c, 0x3d, 0xb0, 0x20, 0xe8, 0xbc, 0x71, 0x22, 0xce, 0xbd, 0xc0, 0x27, 0xf7, 0xbd,
  0x3f, 0x96, 0xec, 0xbd, 0xfa, 0x2e, 0x39, 0xbe, 0x42, 0x91, 0x44, 0x3e, 0x25, 0xf0, 0x5f, 0xbe,
  0x51, 0xbc, 0x42, 0x3e, 0xb5, 0xc5, 0x18, 0x3e, 0xcd, 0xf8, 0x09, 0xbe, 0x04, 0xa7, 0x74, 0x3c,
  0x53, 0xd4, 0xf2, 0x3d, 0x8c, 0xc3, 0xba, 0xbd, 0x55, 0x3d, 0xfb, 0x3c, 0x1f, 0x5c, 0x38, 0xbe,
  0xd8, 0xfe, 0x01, 0x3e, 0xaf, 0x16, 0xc0, 0xbc, 0xb3, 0xf4, 0x7a, 0xbe, 0x71, 0x57, 0xe2, 0xb9,
  0xd3, 0x1c, 0x9d, 0xbd, 0x83, 0x47, 0x06, 0xbe, 0x51, 0x21, 0x5b, 0x3e, 0x6f, 0xb7, 0x27, 0xbe,
  0x18, 0x12, 0x84, 0x3e, 0x40, 0x58, 0xb2, 0x3d, 0x75, 0x7c, 0x52, 0x3e, 0x8a, 0x11, 0xa8, 0xbd,
  0x7b, 0x5e, 0x50, 0x3d, 0x0a, 0x5a, 0x3c, 0xbe, 0x45, 0x57, 0xc5, 0x3b, 0xb6, 0x0f, 0x3f, 0xbe,
  0x9f, 0xf8, 0xc2, 0x3d, 0x73, 0x41, 0xdb, 0x3d, 0x62, 0xc5, 0x63, 0x3c, 0x94, 0xe8, 0x23, 0x3d,
  0x6d, 0xd0, 0xfb, 0xbd, 0x3b, 0x14, 0x4b, 0x3e, 0x66, 0x46, 0x1f, 0x3e, 0x90, 0x2a, 0x27, 0xbe,
  0x11, 0x1a, 0xac, 0xbc, 0x4d, 0xfb, 0x8b, 0x3e, 0x65, 0x76, 0x53, 0xbe, 0x7e, 0xc5, 0xa9, 0x3d,
  0xb6, 0x29, 0xe8, 0x3c, 0xa4, 0xcd, 0x4a, 0xbe, 0x2c, 0xe4, 0x04, 0x3e, 0x3d, 0xf3, 0xa5, 0x3d,
  0x83, 0xd0, 0x32, 0xbe, 0xfe, 0xe8, 0x0e, 0x3e, 0x21, 0x36, 0x67, 0xbe, 0x8f, 0xc9, 0x4d, 0xbe,
  0x88, 0x4f, 0x6b, 0xbd, 0x57, 0xd4, 0x8a, 0x3e, 0x4a, 0xa5, 0x19, 0x3d, 0xb7, 0x9c, 0x72, 0x3e,
  0x00, 0x24, 0xaa, 0x3d, 0x27, 0xa8, 0x18, 0x3d, 0xf8, 0x55, 0x43, 0x3e, 0x17, 0xc0, 0x68, 0x3d,
  0xde, 0x01, 0x22, 0x3e, 0x90, 0x1b, 0xce, 0xbd, 0xa3, 0x27, 0x5e, 0x3d, 0xbf, 0x4d, 0x4b, 0xbe,
  0xd0, 0x88, 0xac, 0x3d, 0x4a, 0x28, 0x6d, 0x3e, 0x2f, 0x83, 0x5f, 0xbe, 0xe4, 0x35, 0x3e, 0xbe,
  0xc3, 0x04, 0x60, 0xbe, 0x40, 0xc4, 0x8b, 0xbd, 0x06, 0xeb, 0x40, 0x3e, 0x68, 0xf5, 0xcf, 0xbd,
  0xfb, 0xf0, 0x0d, 0x3e, 0x95, 0x46, 0x83, 0xbe, 0xd6, 0xa6, 0x19, 0x3e, 0x9b, 0xaa, 0x28, 0x3e,
  0xcb, 0x21, 0x43, 0xbe, 0x8a, 0xca, 0x1c, 0x3e, 0xa5, 0x29, 0x27, 0x3d, 0x32, 0xef, 0x11, 0xbd,
  0x2b, 0x60, 0x77, 0x3e, 0x05, 0x25, 0xeb, 0x3d, 0xf3, 0x48, 0x54, 0x3e, 0x7b, 0x48, 0x04, 0x3e,
  0x82, 0x97, 0x5d, 0xbe, 0x08, 0x9c, 0x84, 0xbe, 0x48, 0x09, 0x3b, 0x3e, 0x60, 0xe5, 0xe8, 0x3c,
  0xac, 0x5d, 0x0c, 0xbd, 0x32, 0x1b, 0x3d, 0xbe, 0x7c, 0x56, 0xcf, 0xbd, 0x1b, 0x2e, 0x52, 0xbe,
  0xf4, 0x40, 0x89, 0x3d, 0xb0, 0x58, 0x1c, 0x3e, 0xa9, 0x79, 0x4f, 0x3d, 0x77, 0xd5, 0x13, 0xbe,
  0x18, 0xf6, 0xd3, 0xbd, 0x97, 0x58, 0xa7, 0x3c, 0x59, 0xf4, 0x3f, 0xbe, 0x8c, 0x6d, 0xe1, 0xbd,
  0x88, 0x0b, 0x99, 0x3d, 0xc5, 0x4a, 0x74, 0x3e, 0x24, 0x2f, 0x45, 0x3d, 0xd0, 0x71, 0x18, 0x3d,
  0x55, 0x04, 0xdd, 0x3d, 0xba, 0xc9, 0x2f, 0xbc, 0xd8, 0x0a, 0xdb, 0x3d, 0x2b, 0xd3, 0x73, 0x3e,
  0x89, 0xe9, 0x39, 0x3d, 0xdc, 0xbe, 0x57, 0xbe, 0x29, 0xbe, 0x05, 0xbe, 0x69, 0xdc, 0x30, 0x3e,
  0x60, 0x37, 0x5a, 0xbc, 0x6e, 0x68, 0xdf, 0xbd, 0x61, 0x86, 0x13, 0xbe, 0x6b, 0xe2, 0x37, 0xbe,
  0x02, 0x93, 0x57, 0x3e, 0x14, 0x47, 0x94, 0xbe, 0xac, 0x6e, 0x9b, 0xbe, 0x37, 0xa1, 0x92, 0xbe,
  0xba, 0xa0, 0x7a, 0xbe, 0x4e, 0xed, 0xad, 0xbe, 0x14, 0x25, 0x92, 0x3d, 0x6f, 0xbe, 0xbd, 0xbe,
  0x7c, 0x18, 0x2a, 0x3e, 0x2d, 0x2e, 0xfe, 0xbd, 0xfa, 0x78, 0xcb, 0xbc, 0x32, 0x23, 0x32, 0xbe,
  0x32, 0xec, 0x89, 0xbb, 0xf8, 0x38, 0xae, 0xbd, 0x5b, 0x31, 0x7a, 0xbe, 0x60, 0x0f, 0x4b, 0xbe,
  0x4a, 0x10, 0x85, 0x3d, 0xa0, 0xbe, 0x07, 0x3e, 0xf8, 0x7f, 0x64, 0x3e, 0x2a, 0x3a, 0xf1, 0xbd,
  0x91, 0x7d, 0x05, 0xbd, 0xf4, 0xea, 0x33, 0xbe, 0xfe, 0x1d, 0xad, 0xbc, 0x94, 0x0b, 0xe2, 0xbd,
  0xbe, 0x87, 0xee, 0xbd, 0x7e, 0x03, 0x1a, 0x3e, 0xdc, 0x61, 0x9e, 0xbd, 0x53, 0x28, 0x5b, 0x3d,
  0xc6, 0xbe, 0x02, 0xbd, 0x97, 0x2f, 0x1e, 0xbe, 0x8a, 0xe6, 0xe8, 0xbd, 0x45, 0x71, 0x7c, 0x3d,
  0x78, 0x40, 0x84, 0xbd, 0x20, 0x43, 0x10, 0x3e, 0x04, 0x45, 0x5a, 0xbc, 0xfe, 0x9b, 0x07, 0xbe,
  0x85, 0x2d, 0x4b, 0x3d, 0xfc, 0xd9, 0x3b, 0xbe, 0x2f, 0x87, 0xbf, 0xbd, 0xac, 0xc8, 0xa3, 0xbd,
  0x1f, 0x3c, 0x6b, 0x3e, 0xd0, 0xb9, 0xa6, 0xbd, 0x73, 0xd1, 0x52, 0xbd, 0x38, 0xe9, 0xa7, 0x3c,
  0x81, 0xee, 0x04, 0xbd, 0x09, 0x88, 0x33, 0x3c, 0x3b, 0x9e, 0x32, 0x3e, 0x49, 0xf3, 0x4a, 0x3d,
  0x7b, 0xa6, 0x96, 0xbc, 0xbe, 0x01, 0x1a, 0xbe, 0x6f, 0x1a, 0xcb, 0xbd, 0x1c, 0x68, 0x78, 0x3e,
  0x90, 0x3a, 0x02, 0x3e, 0x6d, 0xf0, 0x04, 0x3d, 0x4e, 0xc8, 0x66, 0x3e, 0x04, 0x91, 0x30, 0xbe,
  0xbd, 0x0c, 0x3d, 0xbe, 0x40, 0x72, 0x33, 0xbd, 0xc4, 0xfa, 0x81, 0x3e, 0x72, 0x1f, 0x1d, 0x3d,
  0xd2, 0x9c, 0xa5, 0xbd, 0xb7, 0x56, 0xdb, 0x3c, 0x80, 0xed, 0x67, 0x3d, 0xcc, 0x9b, 0x34, 0x3d,
  0x3d, 0x16, 0xb0, 0xbd, 0xc6, 0x28, 0x4f, 0x3c, 0xf7, 0x22, 0x1e, 0xbe, 0x53, 0xf4, 0xbe, 0x3d,
  0x41, 0x0e, 0x77, 0x3d, 0x69, 0xca, 0x4d, 0xbd, 0x85, 0x15, 0x49, 0x3d, 0x87, 0x51, 0x5e, 0x3d,
  0x76, 0x01, 0xdb, 0xbd, 0xa1, 0xd9, 0x3c, 0x3e, 0x84, 0x59, 0x1f, 0xbe, 0xb0, 0x93, 0x2b, 0x3e,
  0x7f, 0x11, 0x98, 0xbd, 0x35, 0x39, 0x83, 0xbc, 0x8c, 0x40, 0xf6, 0xbd, 0x49, 0x5c, 0x4f, 0xbe,
  0x93, 0x87, 0x54, 0xbe, 0xa2, 0x42, 0x79, 0xbe, 0x4f, 0x7d, 0x4f, 0xbe, 0x1d, 0xe1, 0xc3, 0xbe,
  0x26, 0x95, 0x56, 0xbd, 0xab, 0xb3, 0xeb, 0xbd, 0xd0, 0xe6, 0x74, 0x3e, 0x81, 0x85, 0x10, 0x3e,
  0xb6, 0x55, 0x65, 0x3e, 0xcf, 0x31, 0xc0, 0xbd, 0xbf, 0x92, 0x82, 0xbe, 0x0e, 0xa5, 0x5e, 0x3e,
  0xf1, 0xd0, 0xc8, 0x3d, 0x71, 0x3b, 0x33, 0x3d, 0x59, 0xa8, 0x94, 0x3c, 0xad, 0x90, 0xda, 0x3c,
  0xd5, 0xfd, 0x9b, 0x3c, 0x1a, 0xd1, 0xbb, 0xbd, 0xc5, 0xf5, 0x05, 0xbd, 0x70, 0x66, 0xce, 0xbd,
  0x8d, 0xd4, 0xd7, 0x3d, 0x52, 0x00, 0x39, 0xbd, 0x92, 0xf8, 0xdc, 0xbd, 0x08, 0x65, 0x43, 0xbe,
  0xdb, 0x35, 0x25, 0xbe, 0x97, 0x5a, 0x35, 0xbe, 0x42, 0x16, 0x7a, 0xbe, 0x29, 0xc9, 0x06, 0x3e,
  0x27, 0xa7, 0x2a, 0xbd, 0x46, 0x20, 0xe6, 0x3d, 0x2d, 0x95, 0xb3, 0x3d, 0xce, 0x2f, 0x38, 0x3e,
  0x5b, 0x48, 0x26, 0xbc, 0x1e, 0x8a, 0x90, 0xbd, 0xc9, 0x7a, 0x0c, 0xbe, 0x51, 0x59, 0x78, 0x3e,
  0xd6, 0x40, 0x73, 0xbe, 0xee, 0x43, 0x25, 0x3e, 0x69, 0x0c, 0x4f, 0xbe, 0x3c, 0x50, 0xdd, 0x3d,
  0x5f, 0xf4, 0x1a, 0x3e, 0x77, 0xfc, 0x43, 0x3d, 0xa9, 0x5f, 0x29, 0xbe, 0xf0, 0xd8, 0x15, 0x3e,
  0x22, 0x81, 0xfe, 0x3d, 0xd3, 0xd0, 0xdd, 0xbd, 0x6d, 0x22, 0x75, 0xbe, 0x44, 0xcb, 0xc8, 0xbd,
  0x3c, 0x6f, 0x34, 0xbd, 0x70, 0xb6, 0x4e, 0x3e, 0x13, 0x93, 0xee, 0x3d, 0xa1, 0x27, 0xdf, 0xbd,
  0x70, 0x87, 0x2c, 0xbe, 0x9b, 0xed, 0x71, 0x3e, 0xe0, 0xb7, 0x7b, 0x3e, 0x6c, 0xea, 0xfa, 0xbd,
  0x60, 0x9c, 0x79, 0xbe, 0xb3, 0xf7, 0xaa, 0xbd, 0xb8, 0xc0, 0x26, 0x3d, 0xc7, 0x1a, 0x59, 0xbe,
  0x85, 0x90, 0x79, 0xbe, 0x7b, 0xda, 0x3f, 0xbe, 0xa6, 0xd8, 0x91, 0xbd, 0x49, 0x5a, 0xba, 0x3d,
  0xbf, 0x0c, 0x8b, 0x3c, 0xa6, 0x95, 0xc1, 0xbd, 0xaa, 0x69, 0x0f, 0x3e, 0xc5, 0xbb, 0xa3, 0xbd,
  0xa8, 0x40, 0x78, 0x3e, 0xc8, 0xb2, 0x61, 0xbe, 0x5a, 0x71, 0x7b, 0x3e, 0x5c, 0x23, 0x71, 0x3e,
  0x2e, 0xbb, 0x2e, 0xbd, 0x3d, 0x8c, 0x04, 0x3e, 0xae, 0xc6, 0xe5, 0xbd, 0x82, 0xd9, 0xcd, 0xbd,
  0x85, 0xd3, 0x2c, 0x3e, 0x0b, 0x30, 0xe6, 0xbd, 0xb9, 0x97, 0x99, 0x3d, 0xc4, 0xa3, 0x19, 0x3e,
  0xfb, 0xd9, 0x74, 0xbe, 0x8a, 0x02, 0x73, 0x3d, 0x93, 0xc6, 0x75, 0xbe, 0xc6, 0x2d, 0x84, 0xbe,
  0x22, 0x30, 0x4c, 0x3e, 0x29, 0xf7, 0x72, 0xbe, 0x23, 0xcc, 0x6b, 0x3e, 0x4b, 0x6d, 0x4f, 0x3e,
  0xe8, 0x1d, 0x05, 0xbe, 0xb4, 0x18, 0x9a, 0xbd, 0x31, 0x03, 0x5e, 0xbc, 0xc3, 0xcb, 0x40, 0x3e,
  0x66, 0x14, 0x07, 0xbe, 0xca, 0xa0, 0x22, 0xbe, 0xb5, 0xf0, 0x5c, 0xbe, 0xd1, 0xc5, 0x84, 0xbe,
  0x96, 0x0a, 0xb1, 0xbd, 0xc1, 0x91, 0x5d, 0xbe, 0x4d, 0xfe, 0x52, 0x3e, 0x88, 0xb4, 0x5d, 0xbe,
  0x17, 0x08, 0x9a, 0xbd, 0x01, 0xd3, 0x47, 0x3e, 0x75, 0x63, 0xaf, 0xbc, 0xfa, 0xbf, 0x5f, 0x3c,
  0x28, 0xca, 0x15, 0xbe, 0x76, 0xb2, 0xd7, 0x3d, 0x79, 0x16, 0x3b, 0xbd, 0xa6, 0x12, 0xc6, 0xb9,
  0x79, 0x50, 0x70, 0x3e, 0xfe, 0xd4, 0x95, 0x3d, 0x3a, 0xb4, 0x39, 0xbe, 0x7c, 0x10, 0x05, 0xbc,
  0x60, 0x7a, 0x9b, 0x3c, 0x34, 0x27, 0x7c, 0xbd, 0xb4, 0x17, 0x86, 0x3e, 0x52, 0x33, 0x33, 0xbe,
  0x69, 0xeb, 0xbf, 0xbc, 0x42, 0xd9, 0x7e, 0x3d, 0xe3, 0xef, 0x90, 0x3d, 0xbc, 0xe8, 0xac, 0xbd,
  0xc4, 0x2f, 0x26, 0xbe, 0xe1, 0x0b, 0xca, 0xbd, 0xe4, 0x1e, 0x97, 0xbd, 0x88, 0xf4, 0xaf, 0x3e,
  0xf9, 0x62, 0x41, 0x3e, 0x86, 0x23, 0x1f, 0xbe, 0x72, 0x61, 0x91, 0x3d, 0x82, 0xd1, 0x0f, 0xbc,
  0xf7, 0x0a, 0x86, 0xbd, 0xf3, 0x41, 0xde, 0x3c, 0x0e, 0x15, 0x51, 0x3d, 0x8c, 0x94, 0x3e, 0x3e,
  0x8e, 0xb5, 0x7a, 0x3e, 0xcf, 0xaa, 0x54, 0xbe, 0xb6, 0x8f, 0xb3, 0x3c, 0xee, 0xd1, 0x8c, 0xbd,
  0x80, 0xf5, 0xd2, 0xbc, 0x27, 0x1e, 0x7e, 0x3c, 0x3c, 0x22, 0x50, 0xbc, 0xf7, 0x41, 0x1f, 0xbe,
  0x2f, 0x57, 0x4b, 0xbc, 0xd0, 0xa2, 0x2d, 0xbe, 0xab, 0x0b, 0x86, 0x3e, 0xd4, 0x3f, 0x43, 0x3e,
  0x9d, 0xc5, 0xd5, 0xbd, 0x7e, 0xf3, 0x30, 0xbe, 0x41, 0x61, 0x7b, 0x3e, 0x4c, 0x49, 0x0a, 0xbe,
  0xe0, 0x46, 0x9c, 0x3d, 0x4c, 0x65, 0xb3, 0xbd, 0xe7, 0x93, 0x91, 0x3d, 0xae, 0x9b, 0xf0, 0x3d,
  0x3e, 0xb4, 0xdd, 0x3b, 0x39, 0xb9, 0x25, 0x3e, 0x7d, 0x15, 0x52, 0xbe, 0xea, 0x8a, 0x1e, 0xbe,
  0x53, 0x7b, 0x0f, 0x3e, 0xe1, 0x6e, 0x93, 0x3d, 0x23, 0x7e, 0x65, 0x3e, 0x23, 0x42, 0xb4, 0xbd,
  0x2c, 0x41, 0x34, 0xbe, 0x3d, 0x2b, 0x13, 0x3e, 0x8c, 0x3e, 0xc5, 0x3d, 0x2c, 0xca, 0x1b, 0xbd,
  0xcf, 0x9c, 0x77, 0xbc, 0x12, 0x82, 0x68, 0x3e, 0xbc, 0xf9, 0x5c, 0xbe, 0xa9, 0x96, 0xf5, 0xbd,
  0x68, 0xde, 0x32, 0x3e, 0xdf, 0x62, 0x3e, 0x3e, 0xa5, 0x27, 0x76, 0x3e, 0x9b, 0x92, 0x8c, 0xbe,
  0x73, 0x8e, 0x28, 0x3e, 0x06, 0xca, 0xf0, 0xbd, 0xc2, 0x05, 0xf0, 0x3c, 0x48, 0xcd, 0xea, 0xbd,
  0x04, 0xa7, 0xe9, 0xbd, 0xe4, 0xfa, 0xc1, 0x3d, 0xab, 0x73, 0x68, 0xbe, 0xbb, 0x13, 0x85, 0xbc,
  0xd3, 0x5d, 0xfd, 0xbd, 0x37, 0x18, 0x1c, 0x3e, 0xac, 0x0f, 0x8e, 0x3d, 0xc5, 0x2f, 0x8c, 0xbd,
  0x0f, 0x01, 0x6c, 0x3e, 0x86, 0x2a, 0x4b, 0x3e, 0x4a, 0x97, 0x69, 0x3e, 0x19, 0xdd, 0xa4, 0xbd,
  0x8a, 0x69, 0x2c, 0xbe, 0xaf, 0xc2, 0x5f, 0x3e, 0xc4, 0x0b, 0x7b, 0xbd, 0x56, 0xfd, 0xcc, 0x3d,
  0x82, 0xba, 0x02, 0xbd, 0xac, 0xc6, 0x8e, 0xb9, 0x79, 0x43, 0x96, 0x3d, 0x07, 0x9c, 0x16, 0xbe,
  0x59, 0x6c, 0xab, 0xbd, 0x14, 0x0c, 0x48, 0x3e, 0x66, 0x58, 0x11, 0x3e, 0xbd, 0x1b, 0x7f, 0x3e,
  0xed, 0x75, 0xb5, 0xbd, 0x61, 0xf2, 0xe8, 0xbd, 0x46, 0xd6, 0x63, 0xbe, 0xba, 0xd0, 0xc5, 0x3d,
  0x0b, 0xcf, 0xda, 0xbc, 0x5a, 0x9e, 0x14, 0xbe, 0x60, 0xd4, 0x5c, 0xbe, 0x96, 0x4f, 0x8b, 0xbe,
  0xc9, 0x4b, 0x39, 0xbd, 0x8e, 0x44, 0x88, 0xbe, 0x7d, 0xc3, 0xfb, 0x3d, 0x0f, 0x02, 0xc4, 0x3d,
  0xb2, 0x7a, 0x0f, 0x3e, 0xbe, 0x2d, 0xae, 0xbd, 0xd0, 0x1a, 0x8a, 0xbe, 0xb5, 0x6e, 0x3a, 0xbe,
  0xdf, 0x50, 0x22, 0xbe, 0x6e, 0xa3, 0x8d, 0xbe, 0x2b, 0x93, 0x1e, 0x3d, 0x01, 0x6e, 0xa2, 0xbe,
  0x5b, 0xa2, 0x4a, 0xbe, 0xfc, 0x3e, 0x4c, 0xbe, 0xea, 0x98, 0x4d, 0xbe, 0x67, 0x3c, 0x0c, 0xbe,
  0x8e, 0x10, 0xb7, 0x3d, 0x23, 0xd5, 0x1e, 0xbd, 0xc2, 0x8d, 0x45, 0xbd, 0xe6, 0xb0, 0xb3, 0x3d,
  0x2c, 0xe9, 0x1e, 0x3e, 0x18, 0x25, 0x67, 0x3e, 0x63, 0xc3, 0x41, 0x3e, 0xc8, 0xcd, 0xc2, 0xbb,
  0xb1, 0x76, 0x4b, 0x3e, 0xd1, 0xcd, 0x87, 0xbd, 0x3f, 0xd2, 0x26, 0xbe, 0xb3, 0x4a, 0x21, 0xbc,
  0x08, 0x17, 0x9b, 0xbc, 0x39, 0x22, 0xba, 0xbb, 0x3a, 0x35, 0x69, 0xbd, 0x55, 0x9b, 0x26, 0xbd,
  0xdb, 0x4a, 0xb9, 0x3b, 0x67, 0x1b, 0xdb, 0x3d, 0x1d, 0xba, 0x76, 0xbe, 0x29, 0x8e, 0x4f, 0x3c,
  0xd9, 0x3c, 0x34, 0x3e, 0xce, 0x5b, 0x29, 0x3e, 0xeb, 0x06, 0xb8, 0x3d, 0xf3, 0x3d, 0x2d, 0x3e,
  0xa7, 0x00, 0x91, 0xbe, 0xab, 0xfb, 0x1f, 0xbe, 0x7a, 0xde, 0x71, 0xbe, 0x2f, 0x76, 0x82, 0xbe,
  0xe8, 0x87, 0x60, 0xbe, 0x0c, 0xcb, 0x9c, 0xbd, 0x5f, 0x23, 0x30, 0xbe, 0xec, 0xef, 0x5b, 0xbe,
  0xd2, 0xc8, 0x11, 0xbe, 0x21, 0xdd, 0x6c, 0xbe, 0x57, 0xba, 0x79, 0x3e, 0xcd, 0xf1, 0x87, 0x3e,
  0xf7, 0x16, 0x98, 0x3e, 0x94, 0x11, 0xf7, 0x3d, 0xeb, 0x0e, 0x83, 0x3e, 0x1a, 0x44, 0x01, 0xbe,
  0x83, 0x6b, 0x60, 0xbe, 0xd2, 0x17, 0x65, 0xbe, 0xbc, 0xe1, 0x99, 0xbc, 0x02, 0x2d, 0xb2, 0x3d,
  0xdd, 0x4d, 0x58, 0x3e, 0x21, 0xb6, 0x46, 0x3e, 0x9c, 0xc9, 0x64, 0xbe, 0xeb, 0xab, 0x42, 0x3e,
  0x7b, 0xde, 0x2a, 0x3e, 0xd7, 0x87, 0xfa, 0x3d, 0x36, 0xb6, 0xca, 0x3d, 0xa0, 0xa9, 0x75, 0xbe,
  0x64, 0x4e, 0x2a, 0xbc, 0x15, 0xce, 0x64, 0xbe, 0x6b, 0x72, 0x73, 0x3d, 0xe0, 0xdd, 0x2f, 0x3d,
  0xf0, 0x79, 0x6d, 0xbe, 0xf8, 0xf1, 0x56, 0xbd, 0xf0, 0x76, 0xd7, 0xbd, 0x91, 0xee, 0x7d, 0x3e,
  0x2a, 0x63, 0x49, 0x3e, 0x7d, 0xc1, 0x67, 0x3e, 0xf2, 0xe5, 0x64, 0x3e, 0x6b, 0x00, 0x33, 0xbe,
  0xf7, 0xce, 0x25, 0x3d, 0x34, 0x1b, 0x57, 0xbd, 0x37, 0x27, 0xbb, 0x3d, 0x59, 0x14, 0xfa, 0xbb,
  0x6c, 0x57, 0x11, 0xbe, 0x69, 0xd3, 0x03, 0x3e, 0xd8, 0x8b, 0xb8, 0x3d, 0xe6, 0xbb, 0x5a, 0x3e,
  0x3b, 0x2c, 0x82, 0xbe, 0x86, 0xb7, 0x35, 0x3e, 0x39, 0x65, 0x0e, 0x3d, 0x65, 0xfb, 0x65, 0x3e,
  0x86, 0x11, 0xb0, 0xbd, 0xca, 0xf5, 0x3a, 0x3d, 0x04, 0xcc, 0xe1, 0x3d, 0x69, 0x1d, 0xc2, 0x3d,
  0x9e, 0x9c, 0x7e, 0xbd, 0x6b, 0x48, 0x19, 0x3d, 0x4f, 0x53, 0xd5, 0xbd, 0xcb, 0xa4, 0x1b, 0x3e,
  0xc9, 0x18, 0x1b, 0xbe, 0xb1, 0x1a, 0x60, 0xbd, 0xdb, 0x80, 0xb1, 0x3d, 0x28, 0x42, 0xab, 0x3d,
  0xa6, 0x2e, 0x1f, 0xbe, 0x7b, 0x59, 0x4e, 0xbe, 0x64, 0xf2, 0x8b, 0x3d, 0x80, 0x1d, 0x08, 0xbe,
  0x4c, 0x7b, 0x3a, 0x3e, 0xb8, 0x6e, 0x9d, 0x3c, 0x1f, 0xf3, 0x0c, 0x3e, 0x28, 0x13, 0x76, 0xbe,
  0x3e, 0x57, 0x48, 0xbe, 0x1c, 0x75, 0xc7, 0xbd, 0x17, 0x20, 0x85, 0xbe, 0x67, 0x58, 0x74, 0xbc,
  0xfe, 0x16, 0x2f, 0x3e, 0x16, 0xd3, 0x38, 0x3d, 0x6f, 0x28, 0x9e, 0xbc, 0xfc, 0xb8, 0x4e, 0x3e,
  0x2a, 0x99, 0x14, 0xbe, 0xff, 0xc2, 0x9a, 0x3d, 0x67, 0x69, 0x73, 0x3e, 0xb4, 0xc6, 0x13, 0xbe,
  0x09, 0x62, 0xee, 0x3d, 0x9d, 0x58, 0x66, 0x3e, 0xb9, 0x2b, 0xef, 0xbd, 0x2f, 0x36, 0xb7, 0x3c,
  0x76, 0xd7, 0x87, 0xbe, 0x95, 0xcd, 0x45, 0x3d, 0xf4, 0x82, 0x85, 0xbe, 0xe8, 0xa4, 0x1d, 0x3e,
  0x67, 0x84, 0xcb, 0xbc, 0x9a, 0x14, 0x75, 0x3c, 0x3e, 0xc1, 0x83, 0x3e, 0x61, 0xa5, 0x0f, 0xbe,
  0x4b, 0x12, 0xdf, 0x3d, 0x2b, 0x08, 0xaa, 0xbb, 0xa7, 0xf0, 0x3d, 0x3e, 0x41, 0x1d, 0x46, 0x3e,
  0xf0, 0x35, 0xb9, 0x3d, 0x56, 0x1e, 0xa9, 0xbd, 0x69, 0x0b, 0x82, 0xbb, 0x8b, 0xa3, 0xba, 0x3d,
  0x9a, 0xda, 0xc7, 0xbd, 0xb1, 0x38, 0x5b, 0x3e, 0xbe, 0xee, 0x5d, 0xbe, 0xbf, 0xb5, 0xc0, 0xbd,
  0xe9, 0xc2, 0xd8, 0xbd, 0xe2, 0x91, 0xe0, 0x3d, 0x36, 0x17, 0xe4, 0xbc, 0x09, 0x11, 0x74, 0x3e,
  0x9e, 0xe3, 0x62, 0xbd, 0xe5, 0xc0, 0x44, 0x3e, 0xd6, 0x45, 0xda, 0x3d, 0x55, 0xea, 0xe6, 0x3c,
  0x9a, 0xa9, 0xf4, 0x3d, 0x55, 0x3c, 0x28, 0xbe, 0xbe, 0x4f, 0x3b, 0xbd, 0x83, 0xc4, 0xf8, 0x3d,
  0x7c, 0x1f, 0xe5, 0xbd, 0xa1, 0xc5, 0x37, 0xbe, 0xb8, 0x19, 0x39, 0x3d, 0x7d, 0x3a, 0x05, 0x3e,
  0x59, 0xd3, 0x0a, 0xbe, 0x39, 0xaa, 0x44, 0xbe, 0x46, 0x9a, 0x02, 0x3e, 0xaa, 0x1d, 0x84, 0xbd,
  0x5a, 0x35, 0x2c, 0xbe, 0x31, 0x3a, 0x58, 0xbe, 0x93, 0x5b, 0xd2, 0xbd, 0xdd, 0xf4, 0x64, 0x3e,
  0x9f, 0xc9, 0x3c, 0x3e, 0xe8, 0x4e, 0x08, 0x3e, 0x3b, 0x43, 0x89, 0x3e, 0x59, 0xa2, 0x95, 0x3d,
  0xc2, 0x35, 0x97, 0x3d, 0xa4, 0x7e, 0xdf, 0xbd, 0x86, 0x65, 0x91, 0x3e, 0x7d, 0x7c, 0x69, 0xbd,
  0x9d, 0x85, 0x5b, 0xbe, 0x3d, 0x18, 0x02, 0xbe, 0x33, 0xef, 0xb6, 0x3c, 0xf8, 0x32, 0x73, 0xbe,
  0x1b, 0xbd, 0x4b, 0xbe, 0xbb, 0xaf, 0x85, 0x3c, 0x88, 0x9e, 0xe0, 0xbd, 0x9d, 0x23, 0xd5, 0x3d,
  0xd0, 0xbb, 0x3c, 0x3d, 0xe0, 0xfa, 0x7a, 0xbd, 0xe8, 0xa7, 0x1a, 0xbe, 0x26, 0x20, 0x63, 0xbd,
  0x5e, 0xf9, 0x9a, 0x3a, 0xb0, 0xad, 0x5a, 0xbd, 0x0d, 0xf4, 0x1e, 0xbd, 0xbd, 0x4d, 0x5a, 0xbd,
  0xa6, 0x60, 0xad, 0xbc, 0x45, 0xb8, 0x2d, 0x3b, 0x0e, 0x6f, 0x07, 0x3e, 0x01, 0x68, 0x8b, 0xbd,
  0xff, 0x75, 0x21, 0x3e, 0x44, 0x66, 0x34, 0x3e, 0x45, 0x64, 0x17, 0x3d, 0x8a, 0xaa, 0x81, 0x3e,
  0x50, 0xa0, 0x1d, 0x3d, 0x48, 0x73, 0x3e, 0xbe, 0xdc, 0x1b, 0x5b, 0x3e, 0x3a, 0x3e, 0x1b, 0xbe,
  0x21, 0x6e, 0x58, 0xbe, 0x91, 0x41, 0x24, 0x3d, 0x3f, 0xf1, 0x55, 0x3e, 0x16, 0x16, 0x72, 0xbe,
  0x99, 0x8a, 0x7f, 0xbe, 0x1b, 0x2d, 0x45, 0xbe, 0xf0, 0xae, 0xfd, 0x3d, 0x24, 0x81, 0x4c, 0x3e,
  0xdf, 0xe1, 0x45, 0x3e, 0x70, 0x3d, 0x9d, 0xbd, 0x3d, 0x00, 0xea, 0xbc, 0xe6, 0xbb, 0x20, 0xbe,
  0xec, 0x3d, 0x57, 0x3e, 0xde, 0x5c, 0xc4, 0xbd, 0x92, 0x72, 0x00, 0xbe, 0x47, 0xd7, 0x4e, 0x3e,
  0xca, 0x46, 0x60, 0xbd, 0x79, 0x6b, 0x13, 0xbb, 0xf9, 0xc0, 0x86, 0x3e, 0x19, 0x2a, 0xb1, 0xbd,
  0x55, 0x20, 0x4a, 0x3e, 0x4d, 0xd3, 0xc1, 0xbc, 0x9d, 0xbf, 0xc7, 0x3d, 0x34, 0xae, 0x78, 0xbe,
  0x02, 0xa4, 0x3b, 0xbe, 0x3c, 0xf4, 0x34, 0xbe, 0x26, 0x05, 0x7e, 0xbe, 0x6e, 0x3d, 0x64, 0xbe,
  0xd4, 0x39, 0xce, 0xbc, 0xb3, 0x3b, 0x89, 0xbd, 0xee, 0x89, 0x63, 0x3e, 0x4b, 0xf4, 0x5c, 0x3e,
  0x9b, 0xf8, 0xab, 0xbd, 0xd5, 0x30, 0xf9, 0xbd, 0x20, 0x3d, 0x89, 0xbe, 0x47, 0x3b, 0x78, 0x3e,
  0xa2, 0x2b, 0xdf, 0xbd, 0x82, 0xbb, 0x6e, 0x3c, 0xf5, 0x76, 0x65, 0x3e, 0x33, 0xd5, 0x84, 0x3c,
  0xac, 0xc6, 0x51, 0xbe, 0xf5, 0x72, 0x75, 0x3c, 0x59, 0xc0, 0x51, 0xbe, 0x98, 0x37, 0x30, 0x3e,
  0x08, 0xff, 0x3d, 0xbe, 0x94, 0xe5, 0x28, 0x3e, 0x40, 0xca, 0x84, 0x3b, 0x40, 0xc8, 0xb8, 0xbd,
  0x28, 0x8b, 0x08, 0xbe, 0x00, 0xa4, 0xdc, 0xbd, 0x48, 0xaa, 0x2a, 0x3d, 0xc8, 0xda, 0xdc, 0xbc,
  0x38, 0x57, 0x0f, 0x3d, 0x4a, 0xe0, 0xa6, 0xbd, 0x74, 0x82, 0x7c, 0xbd, 0x90, 0xe0, 0x85, 0x3c,
  0x36, 0xfa, 0x08, 0xbe, 0xd6, 0x14, 0x97, 0xbd, 0x00, 0x5d, 0x44, 0x3b, 0xa8, 0x9e, 0xd6, 0xbd,
  0xf0, 0x64, 0x05, 0xbd, 0x90, 0xa2, 0x3f, 0xbe, 0x00, 0x11, 0xe6, 0x3a, 0xb8, 0x8b, 0x3f, 0x3e,
  0x05, 0xcb, 0x16, 0xbe, 0x4a, 0x3e, 0x00, 0xbe, 0x88, 0xf8, 0x3c, 0x3d, 0x3c, 0x1c, 0xfb, 0xbd,
  0x92, 0x1f, 0x5d, 0xbd, 0x82, 0xa9, 0xd5, 0x3d, 0x77, 0x86, 0x3d, 0x3e, 0x4f, 0x0d, 0x44, 0x3d,
  0x4a, 0xed, 0xcb, 0xbd, 0xe3, 0x77, 0x94, 0x3d, 0xca, 0x44, 0x85, 0xbd, 0x2e, 0x0d, 0x17, 0xbe,
  0x8c, 0xed, 0x27, 0xbe, 0x24, 0x5d, 0x29, 0x3e, 0x79, 0x1d, 0x03, 0x3e, 0x05, 0x5e, 0xea, 0xbc,
  0xac, 0x6e, 0xae, 0xbb, 0x42, 0x96, 0xbd, 0x3d, 0xa6, 0xdf, 0x39, 0x3e, 0x60, 0x9c, 0x84, 0xbd,
  0xf5, 0x60, 0x41, 0x3e, 0x01, 0x2c, 0xcc, 0x3d, 0x00, 0xd0, 0xda, 0xbd, 0x2c, 0xe2, 0x00, 0xbe,
  0x6b, 0x9f, 0xbb, 0xbc, 0x49, 0xf6, 0x8e, 0xbe, 0x18, 0xa2, 0xd6, 0x3d, 0x6b, 0xf4, 0x8e, 0x3e,
  0x82, 0x3c, 0x8c, 0x3d, 0x86, 0xb2, 0x1d, 0x3e, 0xc6, 0x17, 0xa8, 0xbd, 0xa8, 0xd5, 0xbd, 0x3d,
  0x13, 0x30, 0x31, 0xbe, 0x85, 0x11, 0xfc, 0x3d, 0x88, 0xcf, 0x74, 0x3e, 0x50, 0xdb, 0x2d, 0xbe,
  0x5d, 0x21, 0x8f, 0x3e, 0x68, 0x70, 0x82, 0x3e, 0x2a, 0xdd, 0x2e, 0x3e, 0xb8, 0xcc, 0xa7, 0xbd,
  0x27, 0x0c, 0xad, 0xbd, 0xe9, 0x88, 0x47, 0x3e, 0x10, 0xd6, 0x06, 0x3d, 0x6a, 0xa7, 0x29, 0xbe,
  0x28, 0x78, 0x10, 0x3e, 0x5b, 0xd0, 0xbd, 0x3c, 0x27, 0x82, 0x30, 0x3e, 0x36, 0x76, 0x1f, 0xbe,
  0x1d, 0x34, 0xb8, 0xbd, 0x65, 0x75, 0xb3, 0xbd, 0x60, 0xcc, 0x5b, 0x3b, 0xd7, 0xd9, 0x9d, 0xbe,
  0x78, 0xd3, 0x9c, 0x3d, 0xe0, 0xa8, 0x3b, 0xbe, 0xf1, 0xbc, 0x32, 0x3e, 0x1c, 0x0f, 0x81, 0x3d,
  0x4a, 0x11, 0xac, 0xbd, 0xbb, 0x93, 0x23, 0xbe, 0x18, 0x54, 0xaa, 0x3b, 0x14, 0xef, 0x69, 0x3c,
  0x57, 0x1e, 0x79, 0x3d, 0x54, 0xab, 0xe3, 0xbb, 0x11, 0x36, 0xac, 0xbd, 0x9d, 0xf6, 0xf7, 0xbd,
  0x76, 0x5b, 0x35, 0x3d, 0xa6, 0x61, 0x47, 0x3e, 0x19, 0x08, 0x39, 0x3e, 0xd5, 0xdf, 0x89, 0xbd,
  0xdf, 0x7b, 0x16, 0xbd, 0xb5, 0xd6, 0xf0, 0xbd, 0x27, 0x84, 0x3f, 0xbd, 0x19, 0x14, 0x4f, 0x3d,
  0xbd, 0x7f, 0x94, 0xbd, 0x12, 0xba, 0xfa, 0xbd, 0x71, 0x98, 0x37, 0x3d, 0x83, 0x5f, 0xf2, 0x3e,
  0x9f, 0xb2, 0x32, 0xbe, 0xac, 0x78, 0x53, 0x3e, 0xec, 0x6c, 0xa4, 0x3d, 0x62, 0x94, 0x12, 0xbe,
  0xba, 0x78, 0x35, 0xbe, 0xe0, 0x4e, 0x9c, 0xbd, 0x18, 0x71, 0x69, 0x3e, 0xcf, 0xc4, 0xb9, 0xbc,
  0x17, 0x46, 0x21, 0x3e, 0x22, 0x23, 0x74, 0x3e, 0x05, 0x48, 0x8e, 0x3d, 0x3f, 0xd5, 0xf9, 0xbd,
  0x3c, 0xc2, 0xa4, 0x3d, 0x6b, 0xd6, 0x46, 0xbe, 0x58, 0x03, 0x26, 0x3d, 0x35, 0x3f, 0x08, 0x3d,
  0x1a, 0x6f, 0x61, 0x3e, 0xfd, 0x10, 0x5c, 0xbe, 0xe1, 0x17, 0x3b, 0x3d, 0xa2, 0x86, 0x22, 0xbe,
  0xbb, 0x29, 0x67, 0xbe, 0xff, 0xfa, 0xcb, 0x3d, 0x24, 0xf2, 0xb8, 0x3d, 0xaf, 0x7c, 0x36, 0x3e,
  0xd8, 0x52, 0xbd, 0x3d, 0xb8, 0xb0, 0xfc, 0xbc, 0xd6, 0x8d, 0xf5, 0xbd, 0xcb, 0xb7, 0x77, 0xbe,
  0x48, 0x1d, 0x6a, 0xbe, 0xc0, 0x3a, 0x24, 0xbd, 0x8e, 0xca, 0xd3, 0xbd, 0x84, 0x9d, 0x36, 0xbd,
  0x90, 0xe1, 0x0d, 0x3e, 0xa0, 0x91, 0x63, 0x3d, 0x50, 0x40, 0x31, 0xbe, 0x0e, 0x86, 0x62, 0xbe,
  0x4e, 0x57, 0x38, 0xbe, 0x38, 0x9b, 0x58, 0xbd, 0xbc, 0xf4, 0xb1, 0x3d, 0x1e, 0x95, 0xf4, 0xbd,
  0x97, 0x02, 0x83, 0x3e, 0x8a, 0x45, 0x1a, 0xbe, 0xf0, 0xff, 0xb0, 0x3c, 0xf0, 0xe9, 0x58, 0xbd,
  0x80, 0xac, 0xce, 0xbb, 0xf8, 0x6a, 0xc8, 0x3d, 0xe8, 0xf5, 0x3e, 0x3d, 0xf2, 0x32, 0x44, 0xbe,
  0x9d, 0x34, 0x5a, 0x3e, 0xa7, 0x24, 0x0c, 0xbd, 0x9d, 0x9e, 0x8b, 0x3d, 0xc2, 0x13, 0xbc, 0xbd,
  0xab, 0x2a, 0x54, 0xbe, 0x0f, 0x0b, 0x52, 0xbd, 0x51, 0x2f, 0x8a, 0xbb, 0x8b, 0x03, 0x2d, 0x3e,
  0xd5, 0x74, 0x07, 0xbe, 0x75, 0x31, 0x9e, 0x3d, 0xaa, 0xa9, 0x55, 0x3e, 0x0b, 0x3c, 0x76, 0x3c,
  0x0f, 0x6d, 0xe2, 0xbd, 0x2f, 0xb6, 0x5d, 0xbe, 0x1e, 0x22, 0xa4, 0x3c, 0x97, 0xb9, 0x26, 0x3e,
  0xb2, 0x6d, 0xff, 0x3d, 0x7d, 0xfb, 0x49, 0x3e, 0x33, 0x57, 0xb0, 0xbd, 0xa1, 0x2b, 0x40, 0x3c,
  0x4e, 0x2b, 0x8f, 0x3d, 0xe8, 0x27, 0x19, 0x3d, 0xca, 0xa9, 0x88, 0x3c, 0x52, 0x71, 0x5e, 0x3e,
  0xbb, 0x90, 0x24, 0x3e, 0x89, 0xa4, 0x80, 0x3c, 0x6a, 0x40, 0xeb, 0x3d, 0x07, 0xa5, 0x00, 0xbe,
  0x52, 0xb7, 0x50, 0x3e, 0x92, 0x38, 0x93, 0xbd, 0x11, 0x4c, 0x31, 0xbe, 0x05, 0xe0, 0x82, 0x3e,
  0xf5, 0xd0, 0x54, 0x3e, 0x6f, 0x3a, 0x16, 0xbe, 0xcd, 0x25, 0x6d, 0xbd, 0xd6, 0xde, 0x38, 0xbd,
  0x15, 0x55, 0x85, 0x3d, 0x65, 0x39, 0x67, 0x3d, 0xee, 0xcd, 0x5d, 0xbd, 0x11, 0xde, 0x72, 0xbe,
  0x9c, 0x5c, 0x1e, 0xbe, 0x06, 0xee, 0x61, 0xbd, 0x41, 0xb6, 0x54, 0x3e, 0x70, 0xdc, 0xff, 0xbc,
  0xea, 0xa4, 0xda, 0x3c, 0x4f, 0x67, 0x4c, 0x3d, 0xd3, 0x46, 0x71, 0x3d, 0x5c, 0xa8, 0x98, 0x3e,
  0xd8, 0xff, 0x92, 0xbc, 0x20, 0x81, 0x5a, 0xbd, 0x37, 0x7e, 0xf4, 0xbd, 0x01, 0x59, 0x20, 0x3e,
  0xbf, 0x78, 0xec, 0x3d, 0x19, 0x5d, 0xbf, 0x3c, 0x0c, 0x71, 0xa6, 0x3d, 0xad, 0x67, 0xde, 0x3d,
  0x7b, 0x8e, 0x79, 0x3e, 0x3f, 0x4c, 0xcf, 0x3d, 0x2a, 0x7f, 0x06, 0x3e, 0xf2, 0x00, 0xff, 0xbd,
  0x60, 0xfa, 0x3f, 0xbe, 0x53, 0x17, 0x76, 0xbd, 0xca, 0x9b, 0x41, 0xbe, 0x20, 0x09, 0x5a, 0x3e,
  0x9f, 0x57, 0x3e, 0x3d, 0xe0, 0x99, 0x89, 0xbd, 0xac, 0x2f, 0x02, 0xbe, 0x86, 0x23, 0x23, 0x3e,
  0xac, 0x63, 0xa9, 0x3c, 0x26, 0x27, 0x74, 0x3e, 0x91, 0x8d, 0xf2, 0xbb, 0xfd, 0x7f, 0x3f, 0xbd,
  0x66, 0xa6, 0x9f, 0x3d, 0x87, 0x68, 0x5e, 0xbd, 0x1b, 0xea, 0x53, 0x3e, 0xe6, 0x54, 0x18, 0x3d,
  0x22, 0x2d, 0xdb, 0x3d, 0x8c, 0xde, 0x57, 0x3e, 0x2e, 0x2c, 0xc3, 0x3d, 0x2f, 0x22, 0x2d, 0x3e,
  0x12, 0x79, 0xd7, 0x3b, 0xf6, 0x73, 0xd5, 0x3d, 0x55, 0x07, 0x18, 0xbd, 0x38, 0x2a, 0x67, 0x3e,
  0x61, 0x11, 0xa8, 0xbd, 0x91, 0x1b, 0x09, 0x3e, 0xee, 0x0a, 0x18, 0xbd, 0x6f, 0xae, 0x4e, 0xbe,
  0x97, 0x89, 0x96, 0x3d, 0x47, 0x68, 0x3a, 0xbe, 0xbd, 0xb2, 0x84, 0xbd, 0xad, 0xe9, 0x44, 0x3e,
  0x2c, 0xfb, 0xcd, 0xbd, 0x87, 0xc0, 0x89, 0x3b, 0x29, 0x78, 0x85, 0x3d, 0x81, 0xd6, 0x16, 0xbe,
  0x1c, 0x92, 0x06, 0xbd, 0x96, 0xc8, 0x2d, 0xbe, 0xf3, 0xd7, 0x86, 0xbe, 0x5e, 0x08, 0xc7, 0x3d,
  0x93, 0x8d, 0x7a, 0x3c, 0xfa, 0xfa, 0x03, 0xbd, 0x62, 0x1d, 0x06, 0xbe, 0x62, 0xa7, 0x9a, 0xbd,
  0x1a, 0xce, 0x53, 0x3e, 0x68, 0xe8, 0x2e, 0xbe, 0xe1, 0x24, 0x56, 0xbe, 0x03, 0x70, 0xd3, 0x3d,
  0x7d, 0x7a, 0xd0, 0x3c, 0x62, 0x83, 0x00, 0x3c, 0xde, 0x50, 0xdd, 0x3d, 0x15, 0x12, 0xdb, 0xbb,
  0x26, 0x2f, 0x3c, 0xbd, 0xf4, 0x41, 0x6e, 0x3d, 0xda, 0xff, 0xe0, 0xbc, 0xa5, 0xdd, 0x9e, 0xbd,
  0x3a, 0x25, 0x65, 0xbe, 0xf6, 0x1b, 0x1c, 0x3e, 0x9c, 0xc1, 0xf4, 0xbd, 0x85, 0xe7, 0xa5, 0x3d,
  0x86, 0x5b, 0x80, 0xbd, 0xde, 0x40, 0xf9, 0x3d, 0x37, 0x44, 0x1f, 0x3d, 0x40, 0x8b, 0x14, 0xbe,
  0x5b, 0xd9, 0xc5, 0x3c, 0xec, 0x31, 0xc4, 0x3d, 0x08, 0x3f, 0x1f, 0x3e, 0xf6, 0x21, 0xe3, 0xbc,
  0xe6, 0x03, 0x15, 0x3e, 0x5c, 0x5d, 0x2d, 0xbe, 0x6a, 0x85, 0x5d, 0x3d, 0x45, 0xc9, 0xb0, 0x3d,
  0x69, 0x48, 0x1f, 0xbe, 0x75, 0x52, 0xdb, 0xbd, 0xc3, 0x32, 0x2c, 0x3d, 0xe4, 0xe6, 0xcd, 0x3d,
  0x94, 0x47, 0x98, 0xbc, 0x12, 0xad, 0x5d, 0xbc, 0x67, 0xa8, 0x49, 0xbe, 0x1c, 0xc9, 0x7d, 0xbe,
  0x44, 0x83, 0xbe, 0xbb, 0x73, 0x16, 0x16, 0xbe, 0x51, 0x82, 0x9d, 0xbd, 0x32, 0xb6, 0xbe, 0x3e,
  0xdc, 0x5d, 0x2d, 0x3d, 0x92, 0x6b, 0x39, 0xbb, 0xf6, 0x8c, 0x56, 0xbe, 0x56, 0x4c, 0x70, 0xbd,
  0x63, 0x18, 0xdd, 0xbd, 0xaa, 0xe8, 0x47, 0x3e, 0xa7, 0x32, 0xa6, 0x3d, 0x42, 0x5e, 0x33, 0x3e,
  0x85, 0x22, 0x1f, 0x3d, 0x76, 0x31, 0x9a, 0xbd, 0xe3, 0x38, 0x41, 0x3e, 0x0b, 0x93, 0xf2, 0x3d,
  0xb0, 0x06, 0x9a, 0x3d, 0xbb, 0x7d, 0x05, 0x3e, 0xde, 0xdc, 0x70, 0xbe, 0xbf, 0x55, 0x28, 0xbc,
  0xf3, 0xc3, 0x38, 0x3d, 0x31, 0xd6, 0x35, 0xbe, 0xc6, 0x43, 0x20, 0x3e, 0xeb, 0xc6, 0xa7, 0xbd,
  0xc3, 0x97, 0x74, 0x3d, 0x11, 0x53, 0x88, 0x3c, 0xf5, 0x1c, 0x8c, 0x3d, 0xad, 0xa3, 0x5d, 0xbd,
  0xeb, 0xc8, 0x90, 0x3d, 0x1c, 0x87, 0xbb, 0x3d, 0x87, 0x5c, 0xd9, 0x3d, 0x51, 0xc7, 0x44, 0xbe,
  0x9f, 0x6a, 0x2a, 0xbd, 0x40, 0xf8, 0x21, 0xbe, 0x6d, 0xe6, 0x38, 0xbd, 0x6c, 0x7b, 0xe5, 0xbd,
  0x34, 0x32, 0x62, 0xbe, 0xb1, 0xb8, 0x33, 0x3e, 0x70, 0xd1, 0xf5, 0x3c, 0xbc, 0x7a, 0x8e, 0xbe,
  0x43, 0x5d, 0x97, 0x3c, 0x37, 0xfa, 0x53, 0xbe, 0x52, 0xe4, 0x47, 0x3e, 0x48, 0xc0, 0xa1, 0x3d,
  0x23, 0xec, 0x4c, 0x3e, 0xc3, 0x99, 0x62, 0x3e, 0x69, 0x1d, 0xef, 0x3d, 0x1f, 0x43, 0x95, 0xbc,
  0x4d, 0x20, 0x6d, 0x3e, 0x02, 0x8c, 0x28, 0xbe, 0xf6, 0xfd, 0x31, 0xbe, 0x1e, 0x55, 0xcf, 0xbd,
  0xa5, 0x10, 0x09, 0x3e, 0x55, 0x0f, 0xfc, 0x3c, 0x52, 0x4f, 0x63, 0xbe, 0xbb, 0x44, 0x94, 0xbe,
  0xf3, 0x9f, 0x6e, 0xbe, 0x09, 0x4c, 0x79, 0xbe, 0x1a, 0x9c, 0xf2, 0x3c, 0x3c, 0x0d, 0x3f, 0xbd,
  0x3b, 0x75, 0xe3, 0xbd, 0x14, 0x69, 0x4b, 0x3d, 0x72, 0xb9, 0x44, 0xbe, 0x80, 0x25, 0xd4, 0x3c,
  0x92, 0xb7, 0x18, 0x3e, 0x0d, 0xad, 0x5f, 0xbe, 0xc9, 0x04, 0x69, 0x3e, 0x45, 0xb0, 0x46, 0xbe,
  0xf0, 0x71, 0x90, 0xbd, 0xef, 0x9a, 0xe9, 0x3d, 0x4e, 0x8d, 0xaa, 0xbd, 0x2c, 0x26, 0xa2, 0x3c,
  0x84, 0xff, 0xe2, 0xbd, 0xf1, 0x30, 0x0e, 0xbe, 0xa8, 0x9a, 0x39, 0xbe, 0x00, 0x0d, 0x61, 0x3e,
  0x42, 0xe6, 0x20, 0xbe, 0x3c, 0x99, 0x89, 0xbd, 0xf4, 0x9e, 0x06, 0x3e, 0xba, 0x9b, 0x83, 0xbe,
  0x3f, 0x4f, 0x82, 0xbe, 0x66, 0x1b, 0x37, 0xbe, 0x24, 0xcd, 0xc9, 0x3d, 0x60, 0xd3, 0x66, 0xbd,
  0xbc, 0x34, 0x03, 0xbe, 0x8c, 0x3c, 0x6a, 0x3e, 0x46, 0xcb, 0x65, 0xbe, 0x98, 0xd2, 0x04, 0xbd,
  0x20, 0x2a, 0xec, 0x3d, 0x1b, 0x93, 0x0a, 0xbe, 0x92, 0xc0, 0x06, 0x3e, 0xb4, 0x10, 0x3a, 0x3e,
  0x6c, 0x82, 0xad, 0xbd, 0x38, 0x3f, 0x88, 0x3d, 0x88, 0x66, 0x7d, 0xbd, 0x9c, 0x01, 0x19, 0x3e,
  0x36, 0xa6, 0x3c, 0xbe, 0xe5, 0x05, 0x80, 0xbe, 0xa8, 0xa8, 0xcc, 0x3d, 0x08, 0xa8, 0x26, 0xbe,
  0xbd, 0x1c, 0x58, 0x3d, 0x30, 0xf3, 0xc4, 0xbc, 0x9a, 0xc9, 0x51, 0x3e, 0xa7, 0x31, 0x70, 0x3e,
  0x63, 0x7f, 0xea, 0xbd, 0x96, 0xc8, 0x87, 0x3e, 0x68, 0x15, 0x7c, 0x3e, 0xad, 0xdb, 0xff, 0xbd,
  0x41, 0x22, 0x5f, 0xbd, 0xda, 0xac, 0x6a, 0x3c, 0x87, 0x15, 0x50, 0x3e, 0xdc, 0x2b, 0x7a, 0xbe,
  0xfd, 0xb3, 0x11, 0xbd, 0x8a, 0x06, 0x9e, 0x3c, 0x97, 0x98, 0xb7, 0xbd, 0x36, 0x0e, 0xae, 0x3d,
  0xf9, 0x74, 0x29, 0x3c, 0xc4, 0x2b, 0x6e, 0xbe, 0x2a, 0x68, 0x64, 0xbc, 0x0b, 0x1a, 0x45, 0xbe,
  0xeb, 0xb3, 0x6b, 0x3e, 0xce, 0xbd, 0xe6, 0xbd, 0xd7, 0x30, 0xe2, 0xbd, 0x66, 0x7a, 0x86, 0x3e,
  0xfa, 0xc1, 0x88, 0x3d, 0xb7, 0xa7, 0x75, 0xbe, 0xf7, 0x9d, 0xc1, 0x3d, 0x91, 0x5b, 0xbe, 0xbd,
  0x13, 0x4d, 0x48, 0x3e, 0x21, 0x3b, 0x81, 0xbd, 0x66, 0x09, 0x24, 0x3e, 0x2a, 0x47, 0x97, 0xbd,
  0x34, 0xbc, 0x21, 0xbe, 0xf8, 0x6c, 0x88, 0xbe, 0x42, 0x55, 0x37, 0x3e, 0xe1, 0xb9, 0x77, 0xbe,
  0xa8, 0x39, 0x1a, 0x3e, 0x1b, 0x0c, 0xc1, 0xbd, 0x6d, 0x84, 0x72, 0xbc, 0x60, 0xc8, 0xcc, 0xbc,
  0x51, 0xf0, 0xaf, 0xbd, 0xd6, 0xa6, 0x3c, 0x3e, 0xd0, 0x62, 0x70, 0x3e, 0x63, 0xc2, 0x4b, 0xbe,
  0x7c, 0x46, 0x4b, 0xbd, 0x94, 0x6d, 0x73, 0x3b, 0x68, 0xd9, 0xa6, 0xbb, 0x95, 0x35, 0xf0, 0x3d,
  0xbd, 0x29, 0xd8, 0x3d, 0xb9, 0x09, 0xf6, 0x3d, 0x87, 0x52, 0x5b, 0x3d, 0xea, 0xa0, 0xcd, 0x3d,
  0x2e, 0x78, 0x9d, 0xbd, 0x29, 0x84, 0x83, 0x3d, 0x3a, 0x14, 0x19, 0xbd, 0x30, 0xcc, 0x30, 0xbe,
  0x62, 0x7a, 0x34, 0xbe, 0xa2, 0xf8, 0x83, 0xbd, 0x81, 0x1c, 0x19, 0xbe, 0x00, 0xfe, 0x66, 0x3e,
  0x88, 0x42, 0x17, 0xbe, 0x89, 0x1f, 0x8a, 0xbc, 0x0f, 0x36, 0x41, 0xbe, 0x0e, 0x96, 0x8e, 0x3d,
  0x99, 0x71, 0x65, 0xbe, 0x8c, 0x35, 0xfb, 0x3d, 0xdd, 0xb1, 0x5c, 0x39, 0x6f, 0x03, 0x1e, 0x3d,
  0xa6, 0xc2, 0xb1, 0x3d, 0x83, 0x90, 0x20, 0x3e, 0xec, 0x67, 0x27, 0xbe, 0x59, 0x44, 0x77, 0x3e,
  0xf4, 0x97, 0x2c, 0xbd, 0xaf, 0x17, 0x8f, 0xbd, 0x1c, 0x50, 0xbf, 0xbc, 0x07, 0xab, 0x65, 0x3e,
  0xce, 0x3f, 0x9e, 0xbc, 0x2c, 0xaa, 0x76, 0xbe, 0x8d, 0x76, 0xb5, 0xbd, 0x9e, 0x06, 0xd0, 0xbd,
  0x7e, 0xec, 0xe0, 0x3d, 0x75, 0xd3, 0x17, 0xbe, 0x07, 0x78, 0x78, 0xbd, 0x1c, 0xf4, 0xe1, 0x3d,
  0x4d, 0xa0, 0xd3, 0xbd, 0xa0, 0xd7, 0x5c, 0x3e, 0xb8, 0x5a, 0xc4, 0x3d, 0x2e, 0xa6, 0x0f, 0x3e,
  0xc9, 0x2c, 0x32, 0xbd, 0x45, 0x96, 0x06, 0x3e, 0xec, 0x43, 0x43, 0x3e, 0x82, 0x87, 0x85, 0xbe,
  0x9a, 0xe2, 0x32, 0xbe, 0x48, 0x98, 0xf9, 0xbd, 0xc4, 0xb5, 0xf0, 0xbd, 0x38, 0xa5, 0x43, 0x3e,
  0x4a, 0xdc, 0xff, 0xff, 0x04, 0x00, 0x00, 0x00, 0x00, 0x20, 0x00, 0x00, 0x08, 0x6d, 0x91, 0xbd,
  0x67, 0x87, 0x90, 0xbc, 0x99, 0xa9, 0x98, 0xbd, 0x33, 0x69, 0x68, 0x3e, 0x00, 0xa4, 0x61, 0xbc,
  0x00, 0x48, 0x86, 0xb9, 0x75, 0x7b, 0x18, 0x3e, 0xbb, 0x01, 0x4a, 0x3e, 0x51, 0x79, 0xd3, 0xbd,
  0x33, 0x32, 0x53, 0xbe, 0xca, 0x93, 0x82, 0xbe, 0x5c, 0x14, 0x3b, 0xbe, 0x72, 0xdd, 0x64, 0x3e,
  0x1c, 0x47, 0x3f, 0xbe, 0x44, 0x1a, 0x80, 0xbe, 0x40, 0xed, 0xc5, 0xbd, 0x69, 0xb0, 0x5d, 0xbe,
  0x03, 0xb4, 0xe7, 0xbd, 0xc2, 0x59, 0xa1, 0xbd, 0x6e, 0xe7, 0x45, 0xbe, 0x24, 0x5e, 0x4d, 0xbd,
  0xa6, 0x49, 0x17, 0xbe, 0x33, 0xbf, 0x0b, 0xbe, 0xb6, 0x8d, 0xf8, 0x3d, 0x7b, 0xb5, 0xa9, 0x3d,
  0xdc, 0x93, 0x0e, 0xbe, 0xcb, 0x3d, 0x51, 0xbe, 0x1a, 0xe1, 0x49, 0x3d, 0x22, 0xaa, 0xce, 0xbd,
  0x71, 0x07, 0x91, 0x3e, 0x17, 0xff, 0x00, 0x3e, 0x8a, 0x09, 0x20, 0x3e, 0x88, 0xb7, 0x53, 0x3d,
  0xcd, 0x12, 0x73, 0x3e, 0x57, 0xb9, 0xf9, 0xbd, 0x17, 0x88, 0x87, 0x3e, 0xa5, 0x40, 0xfd, 0xbc,
  0x26, 0x71, 0xe2, 0xbd, 0x1d, 0xe1, 0x60, 0x3d, 0x65, 0xb2, 0x7b, 0x3e, 0x2d, 0xcf, 0x1f, 0x3e,
  0x61, 0xa7, 0x76, 0x3d, 0xb3, 0xbd, 0xbd, 0x3c, 0xde, 0x6a, 0x38, 0x3e, 0x98, 0xb8, 0xa3, 0xbd,
  0x91, 0x08, 0xc4, 0xbd, 0x2e, 0x9a, 0x56, 0x3d, 0xc0, 0x74, 0x8b, 0xbd, 0x24, 0x10, 0xd1, 0xb9,
  0x28, 0xec, 0xb9, 0x3d, 0xe6, 0x21, 0x84, 0x3d, 0x43, 0xd4, 0x92, 0xbd, 0x82, 0x6d, 0xe2, 0x3d,
  0x67, 0x18, 0x68, 0xbe, 0x69, 0x90, 0xf6, 0x3d, 0x6e, 0x50, 0x4c, 0xbe, 0xac, 0xab, 0x5a, 0xbe,
  0x01, 0xf8, 0x59, 0x3e, 0xb8, 0x0a, 0xaf, 0x3c, 0x00, 0x65, 0x1d, 0xbd, 0xb6, 0x22, 0xec, 0xbd,
  0x65, 0xbe, 0xc0, 0x3b, 0x67, 0x73, 0x7e, 0xbe, 0x10, 0x7b, 0x20, 0xbe, 0x34, 0x11, 0xd5, 0x3d,
  0x42, 0xae, 0x45, 0x3e, 0xbb, 0xb7, 0xe7, 0x3d, 0x51, 0x41, 0x7d, 0xbe, 0xd0, 0xcb, 0x6f, 0x3d,
  0x24, 0xda, 0x1e, 0x3e, 0xe9, 0xe4, 0x1d, 0x3d, 0x80, 0x88, 0xbd, 0xbd, 0x8e, 0xc9, 0x5f, 0xbe,
  0x45, 0x8b, 0x77, 0xbe, 0x3e, 0x3c, 0x27, 0x3d, 0x54, 0x1c, 0x38, 0xbe, 0xb2, 0x0b, 0x1c, 0xbe,
  0x66, 0x1a, 0xe7, 0x3d, 0xbf, 0x32, 0x15, 0xbd, 0x5b, 0xa1, 0x69, 0xbe, 0x39, 0x1b, 0xfc, 0xbd,
  0x59, 0xc4, 0x7b, 0xbc, 0x36, 0xaf, 0x2f, 0xbe, 0x9a, 0x00, 0x16, 0x3e, 0x40, 0xcb, 0xb2, 0xbd,
  0x58, 0x6a, 0x21, 0x3e, 0x00, 0x8e, 0x48, 0xbb, 0x66, 0x35, 0x4a, 0xbe, 0x43, 0xd1, 0x33, 0x3e,
  0xd6, 0x94, 0xaa, 0x3d, 0x91, 0xa6, 0x04, 0xbe, 0x48, 0x2f, 0x6a, 0x3e, 0x90, 0x37, 0xc3, 0x3d,
  0xff, 0x69, 0x8e, 0x3d, 0x6f, 0x16, 0x6a, 0xbe, 0xf1, 0x9f, 0x71, 0xbd, 0xef, 0x58, 0x45, 0x3e,
  0x23, 0x94, 0x78, 0xbd, 0xaf, 0x31, 0x10, 0xbd, 0x71, 0xcc, 0x93, 0x3d, 0x19, 0x3c, 0x47, 0xbe,
  0x83, 0x27, 0x95, 0x3c, 0xbc, 0xc1, 0x92, 0x3d, 0x1b, 0xa1, 0xdb, 0xbd, 0x0d, 0xef, 0x15, 0xbe,
  0xfe, 0x50, 0x04, 0xbd, 0xd9, 0xba, 0x48, 0x3e, 0x3c, 0x53, 0x3f, 0xbe, 0xc8, 0xc8, 0x7b, 0x3e,
  0xa8, 0xbe, 0x18, 0xbe, 0xc3, 0x71, 0x24, 0xbe, 0x16, 0x51, 0x1b, 0xbe, 0x8e, 0xd2, 0x12, 0x3d,
  0x60, 0x7f, 0xa5, 0x3d, 0x0d, 0xc7, 0x4c, 0x3d, 0xae, 0xda, 0x59, 0x3c, 0xf6, 0x74, 0x0d, 0xbd,
  0xb4, 0x24, 0x32, 0x3b, 0x08, 0xae, 0xb4, 0x3d, 0x80, 0x83, 0x7d, 0x3c, 0xf8, 0xd1, 0x58, 0x3e,
  0x94, 0xf4, 0x5c, 0xbe, 0xd0, 0xdf, 0x99, 0xbd, 0x58, 0x23, 0x17, 0xbe, 0xa9, 0x5e, 0x4f, 0x3e,
  0x59, 0x12, 0xf6, 0x3d, 0x08, 0x9d, 0x1f, 0x3e, 0x4c, 0x1f, 0x4f, 0x3e, 0xa0, 0x0e, 0x5e, 0x3d,
  0x5c, 0xab, 0x1a, 0xbe, 0x00, 0x52, 0x04, 0xbd, 0xb0, 0xba, 0x51, 0x3d, 0x00, 0xc0, 0x3e, 0x38,
  0xc0, 0xdc, 0xd1, 0x3d, 0x30, 0xce, 0x0f, 0xbe, 0xc0, 0x41, 0x7c, 0x3e, 0xe8, 0x69, 0x5d, 0xbe,
  0x00, 0x42, 0xfa, 0xba, 0xd4, 0x5f, 0x1f, 0xbe, 0x34, 0x57, 0x05, 0x3e, 0xe8, 0x4a, 0x6a, 0x3e,
  0x90, 0xb4, 0xe5, 0xbd, 0x48, 0x3f, 0x3f, 0xbe, 0x00, 0x6b, 0xfd, 0x3c, 0x44, 0x0f, 0x56, 0x3e,
  0xe8, 0x13, 0xe4, 0x3d, 0x48, 0xa4, 0x4d, 0xbe, 0x9c, 0x50, 0x15, 0xbe, 0xb0, 0x2d, 0x5d, 0xbe,
  0x38, 0x81, 0x67, 0xbe, 0x88, 0x2d, 0xbf, 0x3d, 0xe0, 0x8b, 0x06, 0xbd, 0x28, 0xb2, 0x4e, 0xbe,
  0x98, 0x14, 0x60, 0xbe, 0x30, 0x9e, 0xb5, 0x3d, 0x54, 0x42, 0x36, 0x3e, 0xe0, 0x15, 0x15, 0xbe,
  0xc0, 0x84, 0x21, 0x3e, 0x80, 0x76, 0x4a, 0xbc, 0x64, 0xdf, 0x7b, 0xbe, 0xb8, 0x00, 0x95, 0x3d,
  0xe0, 0x10, 0xd4, 0x3d, 0x54, 0xb7, 0x38, 0xbe, 0xb0, 0xd0, 0x31, 0xbe, 0x80, 0xdb, 0xa7, 0xbc,
  0x80, 0xc9, 0x20, 0x3e, 0xc0, 0xad, 0x00, 0xbc, 0x24, 0xea, 0x04, 0xbe, 0x28, 0xb3, 0x7e, 0xbe,
  0x34, 0xa5, 0x19, 0xbe, 0x64, 0x4a, 0x04, 0x3e, 0xe0, 0xd6, 0x87, 0xbc, 0xc8, 0xd2, 0x14, 0xbe,
  0x0c, 0x4f, 0x0d, 0xbe, 0xc0, 0x22, 0x20, 0xbc, 0x74, 0x76, 0x5b, 0x3e, 0x00, 0x9b, 0x6b, 0x3c,
  0x78, 0x17, 0x33, 0xbe, 0x68, 0x7f, 0x4a, 0x3e, 0x3c, 0x69, 0x46, 0xbe, 0x28, 0x10, 0x2d, 0xbe,
  0x00, 0x4e, 0xb7, 0x3b, 0xc4, 0xe9, 0x7c, 0xbe, 0x38, 0x90, 0xcc, 0x3d, 0xf0, 0x39, 0x36, 0xbe,
  0x80, 0x9f, 0x1a, 0x3d, 0x88, 0x21, 0xb5, 0x3d, 0xb0, 0x29, 0xd5, 0x3d, 0x28, 0x32, 0x67, 0xbe,
  0xc8, 0x88, 0x51, 0xbe, 0xb0, 0xf8, 0x25, 0x3e, 0xb4, 0x84, 0x4a, 0x3e, 0x77, 0xbb, 0x9c, 0xbd,
  0xc3, 0x6c, 0xb2, 0x3c, 0x82, 0xd5, 0x85, 0x3d, 0x32, 0x48, 0x51, 0x3e, 0x00, 0x94, 0x03, 0xbb,
  0x01, 0xe1, 0x06, 0xbe, 0xe1, 0xb8, 0x3b, 0x3d, 0x81, 0x53, 0x05, 0xbe, 0x6f, 0x18, 0x07, 0x3e,
  0x75, 0x75, 0x7c, 0x3d, 0x57, 0x70, 0xa9, 0x3c, 0x40, 0x0c, 0x97, 0x3c, 0xde, 0xab, 0xc0, 0x3d,
  0x54, 0xb8, 0x0a, 0xbe, 0x1f, 0x4b, 0x2e, 0x3e, 0xb1, 0x08, 0x26, 0x3e, 0x85, 0x09, 0x5b, 0xbe,
  0x5d, 0x13, 0x01, 0xbe, 0x6e, 0xca, 0x4b, 0xbe, 0x0b, 0x80, 0x74, 0x3e, 0xba, 0xec, 0xc7, 0xbd,
  0x6b, 0x53, 0x1c, 0xbd, 0xdf, 0x95, 0xe2, 0x3d, 0x69, 0xa8, 0xda, 0x3d, 0x56, 0x93, 0x01, 0x3e,
  0xc6, 0x6d, 0x43, 0xbe, 0x37, 0x51, 0x32, 0x3c, 0x49, 0x9a, 0x45, 0xbe, 0x3a, 0x52, 0xf2, 0x3c,
  0xa9, 0x36, 0x09, 0x3e, 0x79, 0xef, 0xad, 0x3d, 0x3e, 0x66, 0xc3, 0x3d, 0xbf, 0x02, 0x96, 0xbd,
  0x32, 0xfc, 0x8a, 0xbe, 0x3f, 0xb9, 0x2c, 0x3d, 0xd1, 0x55, 0x80, 0x3e, 0xbf, 0x89, 0x4e, 0x3e,
  0x0f, 0x46, 0x2d, 0x3e, 0x2f, 0x89, 0x1f, 0xbe, 0xde, 0xa8, 0x00, 0x3e, 0x7c, 0x83, 0x14, 0x3e,
  0xf7, 0x2e, 0xdb, 0x3d, 0x4a, 0x65, 0xe7, 0x3d, 0x02, 0x96, 0x54, 0xbe, 0x00, 0x20, 0xac, 0xbd,
  0x79, 0xdc, 0x19, 0xbe, 0x40, 0x8e, 0x83, 0xbe, 0x60, 0x99, 0xb7, 0x3e, 0x2b, 0x5b, 0xf0, 0xbb,
  0x84, 0xa3, 0x5b, 0x3e, 0xd9, 0x1a, 0x5e, 0x3e, 0xe2, 0x0a, 0x34, 0x3e, 0xbd, 0xe1, 0x03, 0x3e,
  0xfa, 0xf8, 0xa0, 0x3d, 0x0e, 0x8e, 0x50, 0x3e, 0x21, 0x7f, 0x9a, 0xbd, 0x66, 0x95, 0x23, 0xbd,
  0xe9, 0x53, 0xde, 0xbd, 0xaf, 0xf2, 0x07, 0xbe, 0xc4, 0xa1, 0x6d, 0xbe, 0xe9, 0xd0, 0x73, 0x3e,
  0x7c, 0x6e, 0xf3, 0xbd, 0xd2, 0x7a, 0x25, 0x3e, 0x93, 0x88, 0x6c, 0x3e, 0xe2, 0x61, 0xb8, 0xbd,
  0x40, 0x0b, 0xbb, 0xbc, 0xa4, 0x3e, 0xc7, 0xbc, 0xa7, 0x95, 0x6b, 0x3e, 0x80, 0x3f, 0x69, 0xbc,
  0xf3, 0xb6, 0x42, 0xbe, 0x17, 0xd7, 0x47, 0x3e, 0x58, 0x90, 0xf7, 0xbd, 0xb5, 0xe7, 0xb3, 0xbd,
  0x38, 0x31, 0x60, 0xbd, 0x66, 0x70, 0x99, 0x3d, 0xd3, 0xc4, 0x34, 0x3d, 0x39, 0xcf, 0x81, 0xbc,
  0x31, 0xf9, 0x90, 0xbd, 0x80, 0x7e, 0x71, 0xbd, 0x71, 0x80, 0x13, 0xbd, 0x03, 0xd1, 0x78, 0x3e,
  0x35, 0x6a, 0x99, 0x3c, 0x18, 0x39, 0xa0, 0x3e, 0x64, 0x7f, 0x6a, 0xbc, 0xbf, 0xd0, 0xb9, 0xbd,
  0x94, 0x5e, 0x62, 0xbd, 0x46, 0x0a, 0x07, 0x3e, 0xc5, 0x59, 0x83, 0xbc, 0x59, 0x4f, 0x33, 0x3e,
  0xb2, 0xf0, 0xa0, 0xbd, 0x79, 0x86, 0x98, 0xbe, 0xc7, 0x3b, 0xc3, 0x3d, 0x58, 0xd9, 0x1f, 0x3e,
  0xf9, 0x04, 0x0c, 0x3f, 0x06, 0xa9, 0x7c, 0xbc, 0x2c, 0x6f, 0x70, 0xbe, 0x56, 0x23, 0xe2, 0xbd,
  0x3f, 0xe5, 0x5f, 0xbe, 0x15, 0x72, 0xd2, 0x3e, 0x1f, 0xa4, 0x5f, 0x3e, 0x77, 0x43, 0x40, 0xbd,
  0x3c, 0x93, 0xdb, 0xbd, 0x67, 0xd3, 0xf1, 0x3d, 0x8b, 0x5d, 0x63, 0x3e, 0x80, 0x77, 0x5b, 0xbc,
  0xcb, 0x8e, 0x2a, 0x3e, 0x7f, 0x69, 0xa6, 0x3d, 0x0a, 0xdb, 0x46, 0xbd, 0xb8, 0xfa, 0x79, 0xbe,
  0x0e, 0xe3, 0xa1, 0x3d, 0x10, 0xc8, 0x53, 0xbd, 0x9f, 0xd0, 0x96, 0x3e, 0x5d, 0x59, 0xf9, 0x3e,
  0x5c, 0x48, 0x23, 0xbe, 0x93, 0xaf, 0x8f, 0xbd, 0xcc, 0x4d, 0x28, 0x3e, 0x33, 0xdc, 0x0a, 0x3d,
  0xf4, 0xd1, 0x13, 0xbe, 0x73, 0xe6, 0x94, 0x3c, 0x5d, 0xf1, 0x1b, 0x3e, 0x27, 0x92, 0x97, 0x3d,
  0xaf, 0xc0, 0xcc, 0xbd, 0x23, 0xf2, 0x79, 0xbe, 0xa8, 0x61, 0xf3, 0xbd, 0x2c, 0x30, 0x8b, 0x3d,
  0x25, 0x89, 0xa2, 0x3e, 0x19, 0x43, 0x10, 0xbe, 0x40, 0x15, 0x43, 0x3e, 0xf1, 0x18, 0x27, 0xbe,
  0x61, 0x12, 0x82, 0xbe, 0xe5, 0xe8, 0x24, 0x3d, 0x26, 0x04, 0x1a, 0xbe, 0x30, 0xb1, 0xf6, 0x3d,
  0xd0, 0x2d, 0x49, 0x3d, 0xc3, 0x39, 0x32, 0x3d, 0x1b, 0x0a, 0x02, 0xbe, 0xde, 0xfa, 0x00, 0xbd,
  0xaf, 0xa7, 0xef, 0xbd, 0x60, 0x10, 0x1f, 0x3e, 0xcc, 0xab, 0x0d, 0xbe, 0xbd, 0x9a, 0x3b, 0x3e,
  0x0d, 0xae, 0x93, 0xbd, 0xda, 0xe2, 0xda, 0xbd, 0xe1, 0x9d, 0x7c, 0x3a, 0x5d, 0xc3, 0xf6, 0xbd,
  0xed, 0xf3, 0x36, 0xbe, 0xf5, 0x8d, 0xbf, 0xbd, 0x87, 0x4e, 0x3b, 0x3e, 0x5b, 0xb7, 0x6a, 0xbd,
  0xab, 0xa0, 0x79, 0xbe, 0x12, 0x38, 0xd6, 0x3c, 0x05, 0x62, 0x48, 0x3e, 0xe4, 0x03, 0x13, 0x3e,
  0x30, 0x3e, 0xb2, 0xbc, 0x1f, 0xa1, 0x15, 0x3e, 0x81, 0xd8, 0x3d, 0x3e, 0xb8, 0x13, 0x9c, 0x3d,
  0xb1, 0x7d, 0x82, 0xbe, 0x26, 0xfa, 0x73, 0x3e, 0xec, 0xd4, 0xed, 0x3d, 0xd8, 0xb3, 0x59, 0x3e,
  0xc0, 0x58, 0x7e, 0xbe, 0xa7, 0xe3, 0xda, 0xbd, 0x20, 0x13, 0x8d, 0x3d, 0x10, 0xf0, 0x86, 0xbd,
  0x73, 0xd5, 0xae, 0xbe, 0x32, 0xad, 0x63, 0x3d, 0x2a, 0xa0, 0x79, 0x3d, 0x1b, 0xf6, 0x35, 0xbe,
  0x2e, 0x10, 0x17, 0x3e, 0x55, 0x4d, 0x0d, 0x3e, 0x9a, 0xdd, 0x42, 0x3d, 0xcc, 0xf7, 0x75, 0x3e,
  0x77, 0xb7, 0xb4, 0xbd, 0x3d, 0x18, 0xad, 0x3c, 0x6b, 0x51, 0x42, 0x3e, 0xc5, 0x5d, 0x15, 0xbb,
  0x54, 0xff, 0x39, 0xbe, 0xd1, 0xa0, 0x6b, 0x3d, 0xb8, 0xd0, 0x59, 0x3e, 0xb0, 0x8b, 0xef, 0xbd,
  0x33, 0x9f, 0x9f, 0xbb, 0x28, 0x77, 0xc4, 0xbd, 0xff, 0x3d, 0x5c, 0x3e, 0x5a, 0x82, 0xb2, 0x3d,
  0x90, 0xa8, 0x39, 0x3e, 0xfb, 0xa6, 0x1e, 0x3d, 0x40, 0x9d, 0x38, 0xbc, 0x39, 0xec, 0x4a, 0x3e,
  0x37, 0x80, 0x78, 0x3d, 0x20, 0x91, 0x6b, 0x3e, 0x1d, 0x15, 0x0f, 0x3e, 0xce, 0x2b, 0x3c, 0x3e,
  0xaa, 0xab, 0x4d, 0x3e, 0x46, 0x66, 0xa7, 0xbd, 0x75, 0xa0, 0x00, 0x3e, 0x14, 0xbd, 0x40, 0x3e,
  0x21, 0xc7, 0x49, 0x3e, 0x45, 0x4e, 0x70, 0xbd, 0x76, 0x55, 0x37, 0x3d, 0xbc, 0xfc, 0x15, 0xbd,
  0x6a, 0x1c, 0x39, 0xbe, 0x2e, 0x8f, 0x64, 0x3e, 0x51, 0xd7, 0x54, 0xbc, 0x51, 0x04, 0x82, 0x3e,
  0x91, 0xb8, 0x42, 0xbe, 0x54, 0xf3, 0x8d, 0x3d, 0x0a, 0x5c, 0xb2, 0xbc, 0xad, 0xdb, 0x51, 0xbd,
  0xbd, 0x67, 0x63, 0xbe, 0xdf, 0x07, 0xac, 0xbc, 0x41, 0xdc, 0x2a, 0xbe, 0x05, 0x08, 0x4c, 0x3e,
  0xdb, 0xd3, 0x6b, 0x3e, 0xbf, 0xbb, 0x4a, 0xbe, 0x39, 0x41, 0xc7, 0x3d, 0x83, 0x9c, 0x4d, 0x3e,
  0x87, 0xf9, 0x5d, 0x3e, 0x76, 0xca, 0x5d, 0xbe, 0x44, 0x9a, 0x63, 0xbe, 0x3f, 0x46, 0x78, 0xbe,
  0xf9, 0xfa, 0x6e, 0x3e, 0xb2, 0xa0, 0x51, 0x3d, 0x5d, 0xf4, 0xe9, 0x3d, 0x8b, 0xe9, 0x72, 0x3e,
  0xeb, 0x11, 0x40, 0x3e, 0xfc, 0xed, 0x74, 0xbd, 0x4b, 0xe0, 0x4b, 0xbe, 0x99, 0x63, 0x2a, 0x3e,
  0xd6, 0xec, 0x02, 0x3e, 0xc2, 0xfd, 0x42, 0x3e, 0x9b, 0x5a, 0xf0, 0x3b, 0xec, 0xd2, 0xc8, 0x3d,
  0x79, 0x8b, 0xb1, 0xbd, 0x6c, 0x73, 0x2e, 0x3e, 0xdc, 0xf8, 0x73, 0xbe, 0x5c, 0x2e, 0x5b, 0x3e,
  0xe7, 0xe4, 0x37, 0xbd, 0x3e, 0x34, 0x9e, 0xbe, 0xe9, 0xfb, 0x8a, 0x3c, 0x0f, 0xfc, 0xf0, 0x3d,
  0x24, 0x6a, 0x63, 0xbe, 0x23, 0x3e, 0x51, 0x3e, 0x3a, 0x66, 0x12, 0x3e, 0xb2, 0x7a, 0x5c, 0x3e,
  0x1d, 0xf8, 0x0d, 0x3e, 0x05, 0xd1, 0x27, 0x3e, 0x08, 0xbf, 0xb7, 0xbd, 0x7f, 0x37, 0x59, 0x3e,
  0x4d, 0x8f, 0x4a, 0xbe, 0xf4, 0x20, 0xdc, 0xbd, 0x70, 0xf3, 0xb1, 0xbd, 0x08, 0x75, 0x81, 0x3e,
  0xcc, 0x68, 0x15, 0xbe, 0x90, 0xc3, 0x03, 0x3c, 0x27, 0x0e, 0x1a, 0x3e, 0xb6, 0xd0, 0x3d, 0x3e,
  0x79, 0xeb, 0x33, 0xbe, 0x90, 0xef, 0x05, 0xbe, 0x05, 0x03, 0x49, 0x3d, 0xf8, 0x50, 0x58, 0xbe,
  0xa2, 0x56, 0x5d, 0xbd, 0x93, 0x77, 0x17, 0x3e, 0xb1, 0x4f, 0x06, 0xbd, 0xe0, 0x74, 0x92, 0xbd,
  0x2c, 0x83, 0x6e, 0x3e, 0x82, 0x5c, 0x07, 0xbe, 0x02, 0x13, 0x6d, 0xbc, 0xda, 0x65, 0x80, 0xbe,
  0x9d, 0x37, 0x4a, 0x3e, 0x92, 0xab, 0x29, 0x3e, 0xe0, 0x17, 0x61, 0xbe, 0x7d, 0x46, 0x6b, 0x3e,
  0xa6, 0x08, 0x7b, 0xbd, 0xea, 0x73, 0xb7, 0xbc, 0x57, 0x2a, 0x0e, 0x3e, 0x90, 0xc0, 0x24, 0x3e,
  0x96, 0xe9, 0x95, 0xbd, 0x3c, 0x14, 0x4d, 0xbe, 0xa4, 0xdd, 0x20, 0xbe, 0x7e, 0xee, 0x83, 0x3d,
  0x23, 0x70, 0x14, 0x3e, 0xb9, 0x13, 0x4b, 0x3e, 0x16, 0xcc, 0x35, 0x3e, 0xd9, 0x03, 0xc2, 0xbd,
  0xbd, 0x38, 0x6c, 0x3d, 0x72, 0x1b, 0x74, 0x3c, 0xe8, 0xf8, 0xfc, 0xbc, 0xbf, 0x0e, 0xf0, 0x3c,
  0x85, 0xf0, 0x13, 0x3e, 0x21, 0xbd, 0x38, 0x3e, 0x7f, 0xf1, 0x74, 0xbc, 0x10, 0xb7, 0x0f, 0x3e,
  0x51, 0xef, 0x66, 0x3e, 0x4b, 0xcd, 0x0e, 0xbe, 0x3f, 0xd2, 0xf3, 0x3d, 0xb1, 0x02, 0x57, 0x3e,
  0xed, 0x3e, 0x80, 0x3e, 0xd4, 0xaa, 0x67, 0x3d, 0xfd, 0xc4, 0xce, 0x3d, 0xa8, 0x48, 0xe6, 0x3d,
  0xfc, 0x0a, 0x41, 0x3d, 0x91, 0xf5, 0x8b, 0x3e, 0x91, 0xe8, 0x62, 0xbd, 0x03, 0x06, 0x09, 0x3e,
  0x40, 0xae, 0x00, 0x3d, 0x4c, 0x52, 0x48, 0xbe, 0x27, 0x55, 0xb7, 0x3b, 0x63, 0xce, 0x0e, 0x3e,
  0x6c, 0x84, 0x92, 0x3d, 0x9c, 0x34, 0x5c, 0xbe, 0xdb, 0xdb, 0x14, 0xbd, 0x89, 0x77, 0x2a, 0xbe,
  0x17, 0x7a, 0x82, 0xbe, 0xf4, 0x15, 0x9a, 0xbd, 0x80, 0x85, 0x93, 0x3c, 0xbc, 0x14, 0x54, 0xbe,
  0x9c, 0x5b, 0x62, 0x3e, 0xdb, 0x78, 0xab, 0xbd, 0x5a, 0xdb, 0xc5, 0xbd, 0x99, 0xa6, 0x2d, 0xbe,
  0x22, 0xe5, 0xd8, 0xbd, 0xf7, 0x3b, 0xc8, 0x3d, 0xc9, 0xb3, 0xd3, 0x3c, 0xe4, 0x8a, 0x47, 0x3e,
  0xf8, 0x09, 0x3e, 0x3e, 0x27, 0x38, 0xf7, 0xbd, 0x40, 0xfb, 0xf2, 0x3d, 0x15, 0x59, 0x06, 0xbe,
  0x91, 0x7e, 0xee, 0x3d, 0xd9, 0xbb, 0x2b, 0x3e, 0x34, 0x46, 0xbc, 0xbd, 0x50, 0xdd, 0x5f, 0x3e,
  0x9d, 0x1b, 0x68, 0x3e, 0x41, 0x0f, 0x2b, 0x3d, 0xa8, 0xb4, 0xfe, 0xbd, 0x8d, 0x35, 0x8b, 0x3d,
  0x98, 0x43, 0x47, 0xbe, 0x0f, 0xa1, 0x72, 0xbe, 0x61, 0x4c, 0x4e, 0x3e, 0xc5, 0x72, 0x51, 0xbe,
  0xd6, 0x15, 0xa8, 0x3d, 0x30, 0x6e, 0xaf, 0x3d, 0x50, 0x47, 0xab, 0xbd, 0x72, 0x5e, 0xaf, 0x3d,
  0x61, 0xf5, 0x13, 0x3d, 0xf9, 0x7a, 0x19, 0x3e, 0xbc, 0x6c, 0xcc, 0xbd, 0x44, 0x20, 0x42, 0x3e,
  0xd7, 0xf8, 0xfb, 0xbc, 0xc1, 0x1e, 0x14, 0xbe, 0x24, 0x36, 0x64, 0xbd, 0x37, 0x9e, 0xfe, 0xbd,
  0x17, 0x13, 0xab, 0x3d, 0x31, 0x93, 0xc5, 0x3d, 0xfe, 0xa0, 0x0d, 0x3b, 0x77, 0xd8, 0x19, 0x3e,
  0xd8, 0xd6, 0x79, 0xbe, 0x5a, 0xb8, 0x1c, 0xbe, 0x8e, 0x84, 0xec, 0x3d, 0x42, 0x3d, 0x3e, 0xbe,
  0x2e, 0xf5, 0xed, 0xbc, 0x6a, 0x89, 0x19, 0xbd, 0xd1, 0x83, 0xf2, 0xbd, 0x04, 0xdf, 0x75, 0xbe,
  0xdc, 0x7c, 0x00, 0x3e, 0x9d, 0xc2, 0x50, 0x3e, 0xf3, 0xda, 0xeb, 0x3d, 0xdd, 0xe6, 0x2d, 0xbe,
  0x10, 0xad, 0xdc, 0xbd, 0xdf, 0x1f, 0x38, 0x3e, 0x69, 0x90, 0xae, 0x3d, 0xff, 0x5c, 0x92, 0xbd,
  0x2a, 0x16, 0x10, 0xbd, 0x95, 0x2c, 0xa6, 0xbc, 0x32, 0x83, 0xb2, 0xbd, 0xb2, 0x55, 0x2f, 0xbe,
  0x02, 0xd8, 0x09, 0x3e, 0x00, 0xf1, 0x37, 0x3e, 0x8c, 0x03, 0x3b, 0x3e, 0xa8, 0x16, 0x62, 0x3d,
  0x7b, 0xfa, 0xc3, 0x3d, 0x47, 0xd0, 0x72, 0xbe, 0xd0, 0xac, 0x40, 0xbe, 0x76, 0xf4, 0x73, 0x3d,
  0xd7, 0x7b, 0xa5, 0x3d, 0x07, 0xba, 0xd7, 0xbd, 0x51, 0xb8, 0x81, 0x3d, 0x00, 0x6d, 0x2e, 0x3d,
  0x65, 0x7c, 0x24, 0xbe, 0xa9, 0x34, 0x93, 0xbe, 0x67, 0xbe, 0x18, 0xbe, 0xc0, 0x09, 0x38, 0xbe,
  0xc5, 0x90, 0x87, 0xbe, 0x8a, 0x46, 0x31, 0xbe, 0xbd, 0xa1, 0xad, 0x3c, 0x15, 0x74, 0x21, 0x3d,
  0x2a, 0x85, 0xa9, 0x3d, 0x06, 0x98, 0x62, 0xbe, 0xdf, 0x22, 0x0f, 0x3e, 0x9b, 0x4c, 0x0d, 0xbe,
  0x6c, 0x69, 0x3a, 0x3e, 0xcc, 0x36, 0xfe, 0x3d, 0xc9, 0x4c, 0x5d, 0x3e, 0x39, 0x30, 0x0c, 0x3e,
  0x53, 0x51, 0x42, 0x3d, 0x5c, 0xdc, 0x07, 0x3e, 0xe6, 0x3f, 0xe6, 0xbd, 0xc9, 0x76, 0x0a, 0xbe,
  0xbc, 0xcd, 0x38, 0xbe, 0x65, 0x29, 0x8a, 0xbd, 0x35, 0x84, 0x81, 0x3e, 0x7f, 0x93, 0x83, 0xbd,
  0x67, 0x55, 0xf4, 0x3d, 0xde, 0x1c, 0x70, 0x3e, 0x43, 0x44, 0x13, 0x3e, 0x4b, 0xdc, 0x0f, 0xbe,
  0xd4, 0x15, 0x15, 0xbe, 0xd7, 0x95, 0xda, 0xbd, 0x25, 0xc7, 0xb5, 0xbd, 0x6a, 0xad, 0x15, 0x3e,
  0xd9, 0x0b, 0xe2, 0x3d, 0x27, 0xf9, 0x2d, 0xbe, 0x27, 0xde, 0x42, 0x3e, 0x61, 0x36, 0x38, 0x3e,
  0xac, 0x26, 0x9c, 0xbd, 0x4f, 0x88, 0x17, 0x3d, 0x40, 0xc7, 0x7a, 0x3e, 0x68, 0x39, 0xbb, 0xbd,
  0x84, 0x88, 0x46, 0xbe, 0x0c, 0x09, 0x82, 0x3e, 0x25, 0xb0, 0x6c, 0xbd, 0xcf, 0x8f, 0x36, 0x3e,
  0xb0, 0x86, 0x7c, 0x3d, 0x6a, 0x9d, 0x77, 0xbe, 0x0c, 0x45, 0x4b, 0x3e, 0xc5, 0x70, 0xa8, 0xbb,
  0x17, 0xe8, 0x84, 0xbe, 0xf3, 0x27, 0x97, 0x3d, 0x59, 0x1a, 0x71, 0x3d, 0x5c, 0xa4, 0x51, 0xbe,
  0x91, 0x84, 0xf5, 0xbc, 0x77, 0x2e, 0x20, 0x3e, 0xe8, 0x47, 0x8c, 0x3d, 0xd1, 0xff, 0x17, 0x3d,
  0x7e, 0xa9, 0x2d, 0x3e, 0xcf, 0xe5, 0xc0, 0xbd, 0x76, 0x9e, 0xeb, 0x3c, 0x91, 0xb7, 0x8f, 0x3e,
  0x2e, 0xf9, 0x2d, 0xbe, 0x56, 0x7c, 0x5d, 0xbd, 0x53, 0x9d, 0x28, 0xbe, 0x64, 0x12, 0x31, 0x3e,
  0x96, 0x39, 0x21, 0x3e, 0x32, 0x01, 0x86, 0xbe, 0x84, 0x03, 0x16, 0xbc, 0xc9, 0x7f, 0x30, 0xbe,
  0xd6, 0x20, 0xed, 0x3d, 0xb7, 0xc2, 0xab, 0x3e, 0x92, 0xdd, 0x33, 0x3e, 0x39, 0xc9, 0x4f, 0xbe,
  0x8a, 0x70, 0x28, 0x3d, 0x26, 0x09, 0x6e, 0x3e, 0x12, 0x8c, 0x34, 0x3e, 0x12, 0xf9, 0xea, 0x3d,
  0x94, 0xf6, 0x8d, 0x3d, 0xe9, 0xdc, 0x15, 0x3e, 0x47, 0xcb, 0x51, 0xbb, 0x25, 0x7b, 0xf4, 0xbd,
  0x91, 0xef, 0x4c, 0xbe, 0x6e, 0x43, 0x0d, 0xbe, 0x2f, 0x5d, 0x69, 0xbd, 0x06, 0xd3, 0x18, 0xbe,
  0x72, 0xdc, 0xd2, 0x3d, 0x5c, 0x8e, 0xdf, 0x3d, 0x0e, 0x86, 0xb4, 0xbd, 0xa0, 0x07, 0x6e, 0x3c,
  0x47, 0xab, 0x7e, 0xbe, 0x89, 0x31, 0xa3, 0x3e, 0x7b, 0xaf, 0x00, 0x3e, 0xbb, 0x30, 0x46, 0x3b,
  0xef, 0x7f, 0x84, 0x3d, 0x6f, 0x95, 0x81, 0x3d, 0x96, 0xcc, 0x1a, 0xbd, 0x4a, 0xbb, 0x14, 0x3e,
  0x79, 0x0e, 0x88, 0x3e, 0xe2, 0x1e, 0x19, 0x3d, 0xbf, 0x19, 0xb5, 0xbc, 0x8e, 0x3c, 0x36, 0x3e,
  0x43, 0xb0, 0x5d, 0x3d, 0xbc, 0xd7, 0xf9, 0xbd, 0xd8, 0x01, 0x71, 0x3e, 0x18, 0x76, 0x8c, 0x3d,
  0x9f, 0xc0, 0x92, 0xbe, 0x52, 0x1a, 0x6e, 0x3d, 0x35, 0xb0, 0x41, 0xbd, 0xa9, 0xbf, 0xb1, 0x3d,
  0x78, 0x78, 0x58, 0xbe, 0xf1, 0x78, 0x12, 0x3e, 0x19, 0x08, 0xf6, 0xbd, 0xdd, 0xeb, 0x50, 0xba,
  0x3e, 0x48, 0x31, 0xbc, 0xf0, 0xec, 0x6f, 0x3e, 0x39, 0x41, 0x4d, 0xbe, 0xb1, 0xc4, 0x2b, 0xbd,
  0x60, 0x8a, 0x83, 0x3e, 0xf0, 0x2a, 0x9a, 0xbe, 0x98, 0xfa, 0xfa, 0xbd, 0xca, 0x02, 0x1a, 0xbd,
  0x9f, 0x44, 0x94, 0xbe, 0x6b, 0x98, 0x57, 0x3d, 0x90, 0xc2, 0x4c, 0x3e, 0x70, 0x1d, 0x73, 0xbe,
  0xf0, 0x13, 0xe5, 0xbd, 0xb9, 0x94, 0x99, 0xbe, 0x23, 0x37, 0x38, 0x3d, 0x40, 0x02, 0x25, 0xbd,
  0x04, 0xf3, 0x66, 0x3e, 0x4c, 0x16, 0xa2, 0xbc, 0x1c, 0x5e, 0xc3, 0x3d, 0xf8, 0x91, 0x8f, 0xbd,
  0x14, 0x8b, 0xda, 0xbd, 0x25, 0x4b, 0xf8, 0x3d, 0xa2, 0x12, 0x77, 0x3e, 0xf9, 0x7d, 0x52, 0x3e,
  0xab, 0x40, 0xb1, 0x3d, 0xb8, 0xc1, 0xa3, 0x3c, 0xd9, 0x20, 0x5f, 0xbd, 0x0a, 0x44, 0x01, 0xbe,
  0xfb, 0xb0, 0xc3, 0xbc, 0x70, 0xb0, 0x81, 0x3d, 0x99, 0x6d, 0x11, 0x3d, 0x82, 0x2b, 0xfb, 0xbd,
  0x7e, 0xd7, 0x77, 0x3e, 0x4b, 0x7a, 0x2a, 0x3e, 0xec, 0x23, 0xc8, 0xbd, 0xc8, 0xcc, 0x8f, 0xbe,
  0x75, 0x1f, 0x88, 0x3e, 0x74, 0x7d, 0x39, 0xbe, 0x2a, 0xfb, 0x59, 0x3e, 0x7b, 0xa2, 0x52, 0x3e,
  0xcc, 0x13, 0x09, 0x3f, 0xb9, 0x96, 0x66, 0xbe, 0xe4, 0x2e, 0x90, 0x3d, 0x49, 0x74, 0x00, 0xbe,
  0x8f, 0x5c, 0x66, 0xbe, 0x23, 0xbf, 0xd1, 0x3e, 0x1b, 0xb1, 0xbf, 0xbd, 0x45, 0xbc, 0x92, 0x3d,
  0x32, 0xc8, 0xd8, 0x3c, 0x78, 0x52, 0xfe, 0xbd, 0x25, 0x60, 0x7b, 0x3d, 0x7d, 0x08, 0x15, 0x3e,
  0xc4, 0xce, 0x6c, 0x3e, 0x4c, 0x0b, 0xbd, 0xbd, 0x93, 0x45, 0xd6, 0xbd, 0x94, 0xfd, 0x45, 0xbe,
  0x66, 0x74, 0xc0, 0xbd, 0x63, 0x4d, 0xdd, 0x3c, 0xe4, 0xd0, 0xc1, 0x3e, 0x4d, 0xaf, 0x6c, 0x3e,
  0x70, 0x13, 0x3b, 0xbd, 0xaf, 0x2f, 0x86, 0x3d, 0x2f, 0x04, 0x05, 0x3e, 0x40, 0x14, 0x47, 0x3e,
  0x15, 0xb0, 0x66, 0xbe, 0x91, 0xcf, 0x10, 0xbd, 0x64, 0x5c, 0x43, 0x3e, 0x5d, 0x29, 0xb3, 0x3d,
  0x3f, 0xb4, 0x7e, 0x3e, 0x2e, 0x0b, 0xec, 0x3d, 0x70, 0x59, 0x0c, 0xbd, 0x33, 0x93, 0x74, 0x3d,
  0xcd, 0x0f, 0x0d, 0xbe, 0xef, 0x2c, 0x23, 0x3d, 0xb8, 0x3c, 0xa9, 0xbd, 0x5b, 0xfd, 0x17, 0xbd,
  0x77, 0xa5, 0x9a, 0x3a, 0xd1, 0x8c, 0x0a, 0x3e, 0x10, 0x95, 0x5e, 0x3e, 0x80, 0x5d, 0x15, 0x3c,
  0x20, 0x1e, 0xf6, 0xbd, 0x40, 0x21, 0x62, 0xbe, 0xf8, 0x0a, 0x36, 0xbe, 0x97, 0x1c, 0x5f, 0xbd,
  0x8a, 0xff, 0x53, 0x3e, 0x82, 0x45, 0xad, 0xbd, 0xf5, 0x46, 0xd2, 0xbd, 0xcf, 0x31, 0x68, 0x3e,
  0x71, 0x40, 0xb5, 0x3d, 0xca, 0xc2, 0x41, 0xbd, 0x6b, 0x20, 0xed, 0xbd, 0x9f, 0xd6, 0x2a, 0xbd,
  0xa6, 0x0a, 0x47, 0x3c, 0x92, 0xe3, 0x75, 0xbe, 0xbc, 0xa5, 0xd2, 0x3d, 0xcc, 0xb4, 0xcd, 0x3c,
  0xc7, 0xbd, 0x0a, 0x3e, 0x60, 0xd8, 0x8a, 0xbd, 0x50, 0xa5, 0x7f, 0xbe, 0xd4, 0x74, 0x28, 0x3c,
  0x33, 0x3e, 0x16, 0xbe, 0x4a, 0xf2, 0x66, 0x3e, 0x86, 0xb6, 0x59, 0x3e, 0x10, 0xe3, 0x32, 0x3e,
  0x7c, 0x63, 0xaf, 0x3d, 0xd7, 0xb4, 0xcb, 0xbd, 0xf6, 0x54, 0x4f, 0x3e, 0x06, 0x8e, 0x4d, 0x3e,
  0xce, 0x65, 0x04, 0xbe, 0xa8, 0x9d, 0x61, 0xbd, 0xf6, 0x36, 0xe9, 0xbb, 0xde, 0x8e, 0xca, 0x3d,
  0x96, 0xbe, 0x7b, 0xbe, 0x1f, 0xb8, 0x58, 0x3e, 0x9b, 0x83, 0x11, 0xbe, 0x16, 0xad, 0x40, 0xbe,
  0x19, 0xa2, 0x1b, 0x3e, 0x66, 0x55, 0x5d, 0xbd, 0x97, 0x16, 0x89, 0xbd, 0x50, 0x16, 0xa9, 0x3d,
  0x15, 0xab, 0xf8, 0x3c, 0xbc, 0x0b, 0x3d, 0xbe, 0xdc, 0xad, 0x76, 0xbe, 0x75, 0x9c, 0x22, 0x3e,
  0x90, 0xbd, 0x47, 0x3e, 0x7e, 0x63, 0xcc, 0x3d, 0xf0, 0x57, 0x96, 0x3d, 0x4c, 0x4e, 0x29, 0xbe,
  0x17, 0x16, 0xcb, 0x3d, 0x76, 0x1d, 0x77, 0x3e, 0xaf, 0x09, 0x89, 0xbd, 0xd9, 0x83, 0x82, 0xbe,
  0x0f, 0xdf, 0x15, 0x3e, 0x40, 0xf9, 0x08, 0x3e, 0xf8, 0xcd, 0xbd, 0x3d, 0x67, 0xfe, 0xd3, 0x3d,
  0xf9, 0x7f, 0x33, 0xbe, 0xbc, 0xc3, 0x66, 0x3d, 0x4b, 0x3b, 0x35, 0x3e, 0x47, 0xe6, 0xb4, 0xbd,
  0x16, 0x40, 0x27, 0x3e, 0xc9, 0x07, 0x8d, 0xbd, 0x7c, 0xb1, 0x0c, 0xbe, 0x78, 0xc2, 0x39, 0x3e,
  0x9c, 0x0d, 0x9e, 0x3d, 0xab, 0x0b, 0x87, 0xbb, 0xb5, 0xbb, 0x84, 0xbd, 0x43, 0x6b, 0x6a, 0xbe,
  0x21, 0x60, 0x60, 0x3d, 0x8c, 0x77, 0x07, 0x3b, 0x98, 0x5a, 0x96, 0xbe, 0xbc, 0x88, 0x2f, 0xbe,
  0xae, 0x4b, 0x42, 0x3e, 0x80, 0x5f, 0x66, 0xbd, 0xf2, 0x15, 0xc6, 0x3d, 0xb9, 0xea, 0x00, 0xbd,
  0x3b, 0x00, 0xd4, 0xbd, 0x3b, 0x99, 0x07, 0xba, 0x33, 0xc4, 0xc6, 0xbd, 0xe8, 0xb2, 0xc4, 0xbd,
  0x3c, 0xaf, 0x60, 0xbe, 0x58, 0x4a, 0x02, 0xbe, 0xa3, 0xba, 0x2c, 0x3d, 0x3c, 0x2b, 0x97, 0x3e,
  0x68, 0xe0, 0xd8, 0xbb, 0x9e, 0xf0, 0x30, 0xbe, 0xe1, 0xb0, 0x78, 0xbe, 0x70, 0x06, 0x58, 0x3e,
  0x92, 0x70, 0xe7, 0x3d, 0xd7, 0xe8, 0x67, 0x3e, 0x72, 0xb2, 0x03, 0xbd, 0x8b, 0x23, 0x8b, 0x3e,
  0xa5, 0xf6, 0x35, 0x3e, 0xba, 0x9d, 0x43, 0xbd, 0x22, 0xb7, 0xf1, 0xbd, 0x07, 0xa0, 0x3f, 0x3c,
  0x2e, 0xd6, 0x74, 0x3e, 0x84, 0x88, 0x48, 0xbe, 0x5c, 0x30, 0x75, 0xbe, 0x72, 0x70, 0xf9, 0x3b,
  0x9a, 0x37, 0xbc, 0x3d, 0x77, 0x3c, 0x74, 0xbe, 0xba, 0x98, 0xe3, 0xbd, 0x64, 0xa1, 0x4c, 0x3e,
  0xe6, 0x25, 0x36, 0xbe, 0x5c, 0xf0, 0x71, 0x3e, 0x37, 0x6e, 0xb3, 0x3d, 0x0f, 0x17, 0x45, 0x3d,
  0xc0, 0x67, 0x6c, 0x3e, 0xf5, 0x62, 0x60, 0x3d, 0xaa, 0x33, 0x64, 0xbe, 0x38, 0x10, 0x94, 0xbd,
  0x37, 0x63, 0x48, 0xbc, 0x79, 0xaa, 0x52, 0xbd, 0x30, 0x2d, 0xa5, 0x3d, 0x93, 0x5c, 0x34, 0xbe,
  0x7f, 0x16, 0x43, 0xbe, 0x52, 0x8c, 0x47, 0x3e, 0x94, 0x31, 0x2b, 0xbe, 0x02, 0xc8, 0x6f, 0x3c,
  0xb2, 0x26, 0x54, 0x3e, 0x26, 0xed, 0x3e, 0x3e, 0x20, 0x17, 0x82, 0xbd, 0x8b, 0xfb, 0x58, 0x3e,
  0x84, 0xa8, 0x49, 0xbb, 0x13, 0xca, 0x05, 0xbe, 0xc2, 0x60, 0x4d, 0x3d, 0xd0, 0x77, 0x58, 0x3d,
  0xcf, 0x34, 0xe5, 0xbd, 0x90, 0x46, 0xa0, 0x3e, 0xc3, 0x24, 0x40, 0x3d, 0x80, 0x98, 0xf0, 0xbd,
  0x67, 0x1f, 0xc7, 0x3d, 0x3d, 0xf2, 0xcb, 0xbd, 0xbf, 0xbe, 0x2f, 0xbd, 0x4e, 0x24, 0x78, 0x3e,
  0xcd, 0xdd, 0x9c, 0x3b, 0xd0, 0xfb, 0x97, 0x3c, 0xd2, 0x1b, 0xb5, 0xbd, 0x74, 0x1d, 0x52, 0x3e,
  0x37, 0x5a, 0xdc, 0xbc, 0xd4, 0x54, 0x2b, 0x3e, 0x4a, 0xb3, 0x1f, 0x3e, 0x10, 0xd9, 0x3e, 0x3e,
  0xfc, 0xbb, 0x83, 0x3e, 0x8d, 0x70, 0x91, 0xbc, 0x41, 0x61, 0x2d, 0x3e, 0xd4, 0xc6, 0x78, 0xbe,
  0x46, 0xf4, 0x0e, 0xbe, 0xc9, 0xf1, 0x67, 0x3e, 0xc3, 0x9f, 0x91, 0xbc, 0xf3, 0xe2, 0x6a, 0x3e,
  0xbc, 0xe6, 0x73, 0x3e, 0x7c, 0xc9, 0x0c, 0xbd, 0xfb, 0x13, 0x95, 0xbd, 0x7b, 0xec, 0x6e, 0xbe,
  0x46, 0x73, 0xa0, 0xbd, 0x61, 0x7c, 0x11, 0x3e, 0x2f, 0xb6, 0x4d, 0x3e, 0x9e, 0x40, 0x81, 0x3e,
  0xb9, 0xee, 0x53, 0xbe, 0xba, 0x2c, 0x62, 0x3d, 0x94, 0x7c, 0xa7, 0x3d, 0x93, 0x15, 0x17, 0x3e,
  0xe8, 0xb2, 0xdc, 0x3d, 0xfe, 0x62, 0x29, 0x3e, 0xc4, 0x8f, 0x04, 0x3e, 0x30, 0x64, 0x31, 0x3e,
  0x32, 0xca, 0x52, 0x3e, 0x39, 0x57, 0x2f, 0x3e, 0x42, 0x42, 0x5b, 0x3d, 0x8e, 0x38, 0xe0, 0x3c,
  0x1c, 0x03, 0x38, 0x3e, 0x44, 0x44, 0x71, 0x3e, 0x33, 0x6c, 0x01, 0x3e, 0x7d, 0x33, 0x30, 0xbe,
  0x45, 0x29, 0x49, 0x3d, 0x71, 0xdb, 0x1e, 0x3d, 0xb0, 0x20, 0xd5, 0x3d, 0x8f, 0x86, 0x3b, 0xbe,
  0xe1, 0xad, 0xf2, 0xbc, 0x81, 0x18, 0x02, 0xbe, 0xe8, 0x75, 0x54, 0x3e, 0x19, 0xea, 0x72, 0x3e,
  0xdf, 0xe1, 0x48, 0xbe, 0x85, 0xde, 0x37, 0xbd, 0x2d, 0xb3, 0x58, 0x3e, 0xc1, 0xf2, 0x55, 0xbd,
  0xf1, 0xa1, 0x5c, 0xbd, 0xb2, 0x4d, 0xce, 0xbd, 0xd7, 0xcb, 0xde, 0x3d, 0xe8, 0xc0, 0x99, 0xbd,
  0x5c, 0x2e, 0x62, 0xbe, 0xcc, 0x5b, 0x9f, 0x3e, 0x73, 0x3a, 0x12, 0xbe, 0xc2, 0x23, 0x8d, 0x3d,
  0xe4, 0xc4, 0x41, 0x3e, 0x1a, 0x21, 0x35, 0x3c, 0x44, 0x19, 0x0a, 0x3d, 0x8c, 0x09, 0x57, 0x3e,
  0xf0, 0x9d, 0xce, 0xbd, 0x54, 0xae, 0x67, 0x3d, 0x48, 0x13, 0xbc, 0x3d, 0xf0, 0x65, 0x81, 0x3e,
  0xfe, 0xd5, 0x53, 0x3e, 0xa1, 0x0e, 0x52, 0x3e, 0x4e, 0x76, 0xff, 0xbd, 0x5f, 0xe3, 0x0b, 0x3e,
  0xd7, 0xd9, 0x94, 0xbd, 0x15, 0xd5, 0x54, 0xbb, 0x4b, 0xa8, 0xa8, 0x3d, 0xc6, 0x86, 0x09, 0xbe,
  0x60, 0x24, 0xd9, 0x3e, 0xa1, 0x57, 0x39, 0xbe, 0x6f, 0x0e, 0x7f, 0x3e, 0x21, 0x00, 0x94, 0xbd,
  0xb5, 0x84, 0x89, 0x3c, 0xdf, 0x79, 0x02, 0x3e, 0xae, 0x25, 0x32, 0xbe, 0xba, 0xca, 0x01, 0x3e,
  0x38, 0x57, 0x99, 0xbd, 0xbe, 0x7f, 0x5d, 0x3d, 0x61, 0x4a, 0x82, 0xbe, 0xfc, 0x46, 0xa7, 0xbc,
  0x68, 0xf2, 0x86, 0xbe, 0x42, 0x40, 0x63, 0x3e, 0x92, 0x1a, 0x29, 0xbe, 0x66, 0x6c, 0x77, 0xbe,
  0x4c, 0xf4, 0x0c, 0x3e, 0x70, 0x35, 0xc8, 0x3c, 0x50, 0x72, 0x88, 0x3c, 0x40, 0x5a, 0x66, 0x3d,
  0x3a, 0x62, 0x2d, 0x3e, 0x32, 0x8c, 0xe5, 0xbc, 0x9b, 0x42, 0x5a, 0x3e, 0x53, 0x35, 0x75, 0x3d,
  0xb0, 0xa3, 0x08, 0xbd, 0x5a, 0x55, 0x02, 0xbe, 0x11, 0xac, 0x64, 0x3e, 0x71, 0x77, 0x8a, 0xbe,
  0x7e, 0x3b, 0x20, 0x3d, 0xd3, 0x6b, 0xc0, 0x3c, 0xa2, 0x43, 0x38, 0x3e, 0x9e, 0x3d, 0xf2, 0x3d,
  0xe6, 0xbe, 0x50, 0xbd, 0x75, 0xd6, 0x27, 0xbe, 0x40, 0x46, 0x3a, 0xbc, 0xa0, 0x8a, 0xc0, 0xbd,
  0xdd, 0x9f, 0x83, 0x3d, 0x0b, 0x23, 0x4c, 0x3e, 0x9b, 0xc9, 0x2e, 0x3d, 0x77, 0xaf, 0x46, 0xbe,
  0x59, 0x71, 0x02, 0x3e, 0x45, 0x8a, 0x2b, 0x3e, 0x28, 0x67, 0x4a, 0xbe, 0x98, 0x6b, 0x9d, 0x3d,
  0x40, 0x10, 0x4b, 0xbe, 0x39, 0xf9, 0x96, 0xbe, 0xc0, 0x7d, 0x52, 0xbe, 0x16, 0xb2, 0xbc, 0xbd,
  0x1c, 0xdf, 0x87, 0x3d, 0x04, 0xb9, 0x36, 0xbe, 0xa6, 0x37, 0x11, 0x3e, 0xcf, 0x12, 0x54, 0x3d,
  0x64, 0x5c, 0x40, 0x3d, 0x5f, 0x96, 0xa6, 0x3d, 0xd9, 0xd4, 0xf3, 0x3d, 0x8c, 0xb9, 0x07, 0xbe,
  0x58, 0x6f, 0x5f, 0xbe, 0x1c, 0x57, 0x38, 0x3e, 0x28, 0x53, 0x92, 0x3b, 0x8b, 0x49, 0x4e, 0x3e,
  0xf3, 0xd2, 0x9c, 0x3d, 0x88, 0x37, 0x89, 0x3d, 0x21, 0x3d, 0xdf, 0x3c, 0xa6, 0xc2, 0x11, 0xbd,
  0x32, 0xb1, 0x1f, 0x3e, 0x66, 0x38, 0x0e, 0xbe, 0xff, 0x7a, 0x40, 0x3e, 0x0e, 0xdb, 0xc7, 0xbd,
  0xcc, 0xd7, 0x53, 0x3d, 0xd5, 0x7a, 0x14, 0x3e, 0x72, 0x40, 0x10, 0x3e, 0x7b, 0x7d, 0x3e, 0x3d,
  0x4e, 0x58, 0x41, 0xbe, 0x2a, 0x1b, 0x39, 0xbe, 0x77, 0xf5, 0x53, 0x3d, 0xff, 0xce, 0xd7, 0x3d,
  0x88, 0x95, 0x7a, 0x3d, 0x8a, 0x5c, 0x12, 0x3e, 0xff, 0x84, 0xcd, 0xbd, 0xc7, 0x9c, 0xe8, 0x3d,
  0xed, 0x60, 0x41, 0x3e, 0x1d, 0x17, 0x8b, 0xbb, 0xfe, 0xdd, 0xc6, 0x3c, 0x58, 0x82, 0xe6, 0xbd,
  0x34, 0xdb, 0x0f, 0xbe, 0x76, 0x29, 0x9d, 0xbd, 0x98, 0xc8, 0x30, 0xbe, 0x04, 0xbd, 0x19, 0x3e,
  0xa0, 0x9e, 0xf7, 0xbd, 0x3e, 0xc8, 0x1c, 0xbe, 0x02, 0xa3, 0x8d, 0xbd, 0x63, 0x6e, 0xd7, 0x3d,
  0x54, 0xcf, 0xde, 0xbc, 0x62, 0x18, 0xda, 0xbd, 0x54, 0xfa, 0x3c, 0xbe, 0xa9, 0x98, 0x69, 0xbd,
  0x06, 0x55, 0x59, 0x3e, 0xcd, 0x2d, 0xe4, 0x3c, 0x40, 0xa7, 0xf9, 0xbd, 0x72, 0x5f, 0x28, 0x3e,
  0x94, 0x87, 0x4e, 0x3d, 0xe2, 0xb1, 0x38, 0x3d, 0x5d, 0x11, 0x54, 0x3e, 0x58, 0xcb, 0xbe, 0xbd,
  0x78, 0xbb, 0x56, 0x3e, 0x80, 0xdf, 0x96, 0x3b, 0x50, 0xed, 0xbc, 0xbd, 0xc0, 0x36, 0x05, 0x3d,
  0x40, 0x03, 0xec, 0x3d, 0x20, 0x16, 0x75, 0x3e, 0x40, 0x53, 0x12, 0xbc, 0x78, 0xa9, 0x38, 0xbe,
  0x44, 0x0f, 0x46, 0x3e, 0x20, 0xed, 0xc1, 0x3c, 0x6c, 0xcb, 0x18, 0xbe, 0x54, 0x42, 0x0d, 0x3e,
  0xc0, 0x80, 0x9a, 0x3d, 0x40, 0xce, 0x42, 0xbd, 0xc0, 0x77, 0x28, 0xbc, 0x80, 0xfa, 0xd7, 0x3d,
  0x10, 0x34, 0xd7, 0xbd, 0x28, 0xf3, 0x0b, 0xbe, 0x38, 0x0d, 0xd5, 0xbd, 0xa4, 0x5e, 0x0f, 0x3e,
  0x24, 0x37, 0x24, 0xbe, 0x10, 0x29, 0x7d, 0x3d, 0xc0, 0x1b, 0x52, 0x3d, 0x68, 0x8f, 0x19, 0x3e,
  0xc4, 0x67, 0x73, 0xbe, 0xd4, 0xc7, 0x10, 0x3e, 0x60, 0x70, 0x5f, 0xbe, 0x54, 0x09, 0x76, 0x3e,
  0x80, 0x70, 0x39, 0xbd, 0xa8, 0x06, 0xf4, 0x3d, 0x38, 0x5b, 0xe9, 0x3d, 0x50, 0xe2, 0xc3, 0x3d,
  0xdc, 0x57, 0x4c, 0xbe, 0x20, 0xcb, 0x37, 0xbe, 0xc8, 0x9e, 0xb6, 0x3d, 0xa8, 0x8c, 0x87, 0x3d,
  0x88, 0xb3, 0x28, 0x3e, 0x50, 0xff, 0x40, 0xbd, 0xa0, 0x8f, 0x31, 0xbe, 0x2c, 0x2e, 0x36, 0xbe,
  0x90, 0xb8, 0x15, 0xbe, 0x40, 0xb1, 0x84, 0xbd, 0x68, 0x50, 0x4a, 0x3e, 0x00, 0x83, 0x1b, 0xbd,
  0x58, 0xf9, 0xc9, 0xbd, 0x78, 0x3a, 0xa3, 0xbd, 0xd0, 0xdc, 0xea, 0x3d, 0xd0, 0x63, 0x76, 0xbd,
  0x60, 0x05, 0x79, 0x3d, 0xe4, 0x79, 0x7f, 0xbe, 0x88, 0x97, 0x10, 0xbe, 0x90, 0x8b, 0xce, 0xbd,
  0xec, 0x65, 0x68, 0xbe, 0xd0, 0x9c, 0xfa, 0xbd, 0x00, 0x85, 0x11, 0xbc, 0xb4, 0xfb, 0x6f, 0xbe,
  0xb0, 0xc1, 0x55, 0xbe, 0xb4, 0xec, 0x04, 0x3e, 0x00, 0x15, 0x7a, 0xbc, 0x7c, 0x17, 0x74, 0xbe,
  0x20, 0x67, 0x1f, 0x3d, 0x40, 0xd1, 0x3c, 0xbe, 0x88, 0xc3, 0x92, 0x3d, 0x28, 0xc2, 0x00, 0xbe,
  0x61, 0x05, 0xfc, 0xbd, 0x8c, 0x45, 0xf2, 0xbd, 0x41, 0x67, 0x92, 0x3e, 0x28, 0x84, 0x5f, 0xbe,
  0x67, 0x39, 0xc2, 0x3c, 0x9c, 0x07, 0x29, 0x3e, 0x1c, 0xdc, 0x30, 0xbe, 0xf6, 0x3d, 0x4b, 0x3e,
  0x00, 0x1a, 0xea, 0x3c, 0xd6, 0x80, 0x5b, 0x3e, 0xb9, 0x26, 0xe3, 0xbd, 0x9e, 0x30, 0x80, 0x3e,
  0x7b, 0x93, 0x11, 0x3d, 0x5f, 0xdf, 0x26, 0xbe, 0x78, 0xdf, 0x3f, 0x3e, 0x0b, 0x0e, 0x0d, 0x3d,
  0xad, 0x56, 0x5f, 0xbd, 0xc5, 0xd3, 0xe0, 0xbd, 0x2f, 0x17, 0x13, 0x3c, 0x65, 0xcd, 0x40, 0xbe,
  0x79, 0x31, 0x69, 0xbe, 0x88, 0x5a, 0x43, 0x3c, 0x71, 0x2b, 0xc7, 0xbd, 0x4f, 0xb9, 0x53, 0x3e,
  0x1b, 0xd8, 0x12, 0xbc, 0xae, 0x35, 0x5e, 0xbe, 0xcc, 0xc9, 0xca, 0x3d, 0xce, 0x38, 0x04, 0x3e,
  0x2d, 0xd6, 0xc3, 0x3e, 0x4f, 0xf7, 0xde, 0x3d, 0xe0, 0xdc, 0x42, 0xbe, 0xa0, 0xd4, 0x55, 0x3e,
  0xdf, 0x27, 0x73, 0x3c, 0x31, 0x2e, 0x32, 0x3e, 0xb4, 0xf4, 0x39, 0x3e, 0xc8, 0x76, 0x5d, 0xbd,
  0xf0, 0x76, 0x63, 0xbe, 0x5f, 0x58, 0x08, 0xbe, 0x85, 0x8c, 0x15, 0x3e, 0x1e, 0xee, 0x1b, 0x3d,
  0xf0, 0x6d, 0x1b, 0x3e, 0x0d, 0xf1, 0x77, 0x3e, 0x48, 0x94, 0x5f, 0x3e, 0xd8, 0xa8, 0x12, 0x3e,
  0x4c, 0xe6, 0xb8, 0x3d, 0x02, 0x43, 0x74, 0xbe, 0x10, 0x06, 0x9b, 0x3e, 0x28, 0x9d, 0x3f, 0x3d,
  0x30, 0xf1, 0x21, 0x3e, 0x87, 0xe3, 0x7b, 0xbd, 0x4f, 0xcb, 0x83, 0xbd, 0xc2, 0x87, 0x09, 0xbd,
  0x65, 0x6c, 0x83, 0xbd, 0x03, 0x9a, 0x23, 0x3e, 0xd1, 0xdf, 0x50, 0x3e, 0xa4, 0xbd, 0x6f, 0x3e,
  0xd0, 0x47, 0x3e, 0x3e, 0x55, 0x4c, 0x39, 0xbe, 0xa0, 0x13, 0x1a, 0xbd, 0xb9, 0xa6, 0xc1, 0x3d,
  0xaf, 0x4b, 0xbc, 0xbd, 0x4f, 0x80, 0xf7, 0x3d, 0x46, 0xf4, 0x7c, 0x3e, 0x8a, 0x9c, 0x13, 0x3e,
  0xaf, 0x8b, 0xfa, 0x3d, 0xe9, 0x98, 0x6a, 0xbe, 0x04, 0xa2, 0xed, 0x3d, 0xc0, 0xa7, 0x67, 0x3e,
  0x68, 0x07, 0x5e, 0xbe, 0x14, 0xea, 0x31, 0xbe, 0xf4, 0x71, 0x56, 0xbe, 0xd9, 0x5a, 0x58, 0x3c,
  0x02, 0x51, 0x11, 0x3e, 0x3e, 0x65, 0x16, 0xbe, 0xd0, 0x83, 0xd0, 0x3d, 0x50, 0x91, 0x34, 0x3d,
  0x3f, 0x6d, 0x5a, 0xbe, 0xd7, 0x47, 0x82, 0x3d, 0x76, 0xb6, 0x0f, 0x3e, 0x4b, 0x57, 0x16, 0x3e,
  0x3f, 0x10, 0x24, 0x3e, 0xbb, 0xbb, 0x9f, 0xbd, 0xfd, 0x99, 0x6a, 0x3e, 0xfb, 0x2a, 0xa0, 0xbd,
  0x48, 0x46, 0x16, 0xbe, 0xe0, 0xe8, 0x30, 0xbe, 0xaf, 0xf2, 0x46, 0xbe, 0xf0, 0x17, 0x6b, 0x3e,
  0xaa, 0xd5, 0x3f, 0xbe, 0x5e, 0xc2, 0x27, 0x3e, 0xf0, 0xff, 0x35, 0xbe, 0x58, 0x67, 0x74, 0xbe,
  0xc2, 0xdf, 0x2b, 0x3e, 0xf8, 0xd3, 0x2f, 0xbe, 0x24, 0xe9, 0xbf, 0xbd, 0xc0, 0x5d, 0x89, 0x3d,
  0x89, 0x22, 0x08, 0xbe, 0x0d, 0x68, 0x7a, 0xbe, 0xfa, 0x79, 0xc3, 0xbb, 0x8c, 0xee, 0x19, 0x3c,
  0xb9, 0xf6, 0x87, 0xbd, 0xb0, 0x33, 0x56, 0x3d, 0x9f, 0xbb, 0x88, 0xbe, 0xb5, 0xfa, 0x3e, 0x3e,
  0x3d, 0xce, 0x5f, 0xbe, 0xc0, 0xc1, 0xd9, 0x3d, 0xba, 0xf2, 0x20, 0xbe, 0xf4, 0xb7, 0x61, 0xbe,
  0x96, 0x91, 0x2a, 0x3b, 0xec, 0x38, 0x4b, 0xbe, 0x58, 0xa3, 0x6b, 0xbe, 0x61, 0xe1, 0xb7, 0xbd,
  0x5c, 0xeb, 0x24, 0xbe, 0xae, 0x19, 0x65, 0xbe, 0xf6, 0x5c, 0x6b, 0x3e, 0x4b, 0x85, 0x0a, 0xbe,
  0x67, 0xa6, 0x99, 0xbd, 0x23, 0xa9, 0xba, 0x3d, 0x74, 0x47, 0xb2, 0xbd, 0x7d, 0x16, 0x48, 0x3d,
  0x97, 0x84, 0x47, 0xbe, 0x00, 0x7a, 0x18, 0xbe, 0x00, 0x1c, 0xbc, 0x3a, 0x01, 0xfb, 0x34, 0x3e,
  0x0c, 0x70, 0x1b, 0xbe, 0x4f, 0x3c, 0x5a, 0xbe, 0xd9, 0x22, 0x10, 0x3e, 0x1d, 0xe5, 0xd2, 0x3c,
  0x2e, 0xc4, 0xfd, 0xbd, 0x55, 0x2f, 0x55, 0xbe, 0x8b, 0x50, 0xf2, 0x3d, 0xf0, 0xdd, 0x04, 0xbe,
  0xb0, 0x2a, 0x35, 0xbd, 0x76, 0x64, 0x86, 0xbe, 0xd2, 0x36, 0x98, 0x3d, 0x6c, 0x2e, 0x45, 0xbe,
  0x65, 0x01, 0x0a, 0x3e, 0x11, 0x88, 0x53, 0x3e, 0xa9, 0xdc, 0x3d, 0x3e, 0xef, 0xb2, 0x8e, 0xbe,
  0x3c, 0x84, 0xc6, 0xbd, 0x75, 0xee, 0x65, 0x3e, 0x94, 0xd5, 0x0b, 0xbe, 0x59, 0x4e, 0x35, 0x3e,
  0x10, 0xf2, 0x3a, 0xbe, 0x26, 0x8f, 0x94, 0xbd, 0x40, 0x95, 0xe7, 0xbd, 0xe3, 0xa6, 0x82, 0x3d,
  0x81, 0x79, 0xbd, 0xbc, 0xd8, 0xdb, 0xd9, 0x3d, 0x54, 0x50, 0x57, 0x3e, 0x1b, 0x2c, 0x79, 0x3e,
  0x0b, 0xf3, 0x07, 0xbd, 0x73, 0x2b, 0xbe, 0x3d, 0x19, 0xc8, 0xa5, 0x3d, 0x2c, 0xb3, 0x06, 0x3e,
  0x43, 0xaf, 0x13, 0xbe, 0x54, 0x4d, 0x5b, 0x3d, 0x68, 0x36, 0x1e, 0x3e, 0xe1, 0x62, 0x5a, 0xbe,
  0xce, 0x1d, 0xe6, 0xbd, 0x1c, 0x97, 0x62, 0x3d, 0x68, 0x95, 0x88, 0xbd, 0x06, 0xc2, 0x20, 0x3e,
  0xb3, 0x52, 0xb8, 0xbc, 0xff, 0xc3, 0x2c, 0x3e, 0x4d, 0xde, 0x3a, 0x3e, 0x92, 0x37, 0x15, 0x3e,
  0x8a, 0x77, 0x25, 0xbe, 0xa3, 0xc8, 0x36, 0x3d, 0xdf, 0xd5, 0x33, 0x3e, 0xf8, 0xbb, 0x8c, 0x3d,
  0x53, 0xff, 0x1c, 0x3e, 0x44, 0x87, 0xce, 0xbd, 0xcc, 0xe0, 0x19, 0x3e, 0xee, 0x97, 0xe3, 0x3d,
  0x3c, 0xed, 0x58, 0x3e, 0x39, 0xf5, 0x07, 0xbd, 0x99, 0x43, 0x17, 0xbe, 0x53, 0x09, 0xc3, 0x3d,
  0x88, 0x39, 0xc8, 0x3d, 0x90, 0x22, 0x86, 0x3d, 0xe6, 0x66, 0x2d, 0x3e, 0x18, 0x78, 0x6c, 0x3e,
  0xf7, 0x5c, 0x60, 0xbe, 0x60, 0xac, 0xe1, 0xbd, 0x40, 0x94, 0x39, 0x3e, 0xf3, 0x74, 0x3b, 0xbe,
  0x56, 0x69, 0x51, 0x3e, 0xda, 0x03, 0x11, 0x3e, 0xcd, 0x93, 0x4d, 0x3e, 0x00, 0xa3, 0xa0, 0xbb,
  0xa4, 0x9d, 0x61, 0xbe, 0x70, 0x56, 0x7a, 0xbd, 0x54, 0x29, 0x4e, 0xbe, 0x20, 0xfa, 0x73, 0x3e,
  0x68, 0x30, 0x07, 0x3e, 0x80, 0x84, 0x4c, 0xbe, 0xf0, 0x39, 0xe0, 0xbd, 0xc0, 0xe0, 0x36, 0x3c,
  0x78, 0xaf, 0xc3, 0xbd, 0x00, 0xbe, 0x54, 0xbe, 0x00, 0x2e, 0xa6, 0xba, 0x58, 0xab, 0x97, 0xbd,
  0x80, 0x61, 0xb8, 0x3c, 0xe0, 0x3c, 0x32, 0xbe, 0x1c, 0xb2, 0x39, 0xbe, 0x80, 0x21, 0x58, 0x3d,
  0xf0, 0xbd, 0x20, 0x3d, 0x28, 0xe7, 0x7a, 0x3e, 0x10, 0x37, 0x49, 0xbe, 0x60, 0x35, 0xcf, 0xbd,
  0x20, 0x8c, 0x73, 0xbe, 0x74, 0xde, 0x0e, 0xbe, 0xe0, 0xa6, 0x8a, 0x3d, 0xb0, 0x04, 0xc6, 0x3d,
  0xec, 0x51, 0x35, 0xbe, 0x58, 0x2d, 0xbd, 0x3d, 0xe0, 0xa9, 0x08, 0xbd, 0xb0, 0x0d, 0x00, 0xbe,
  0x00, 0x3a, 0x84, 0x3a, 0xd8, 0x08, 0xe5, 0xbd, 0xa8, 0x5d, 0x13, 0x3e, 0xc8, 0x1c, 0x1c, 0x3e,
  0xc0, 0x60, 0x75, 0x3d, 0x9c, 0x56, 0x40, 0x3e, 0x78, 0x26, 0xd8, 0x3d, 0xc8, 0x4c, 0x41, 0xbe,
  0xc8, 0x58, 0xc2, 0xbd, 0x94, 0xfb, 0x71, 0xbe, 0xcc, 0x6b, 0x24, 0x3e, 0x9c, 0x58, 0x67, 0x3e,
  0x10, 0x22, 0x29, 0xbd, 0xd0, 0x0a, 0x06, 0x3e, 0x6c, 0xdc, 0x07, 0xbe, 0x80, 0x28, 0x11, 0xbe,
  0x38, 0xdb, 0xba, 0xbd, 0x70, 0xc8, 0x52, 0xbe, 0xe0, 0x9c, 0x41, 0x3e, 0x00, 0xf0, 0x9f, 0x39,
  0x90, 0x81, 0x47, 0xbe, 0xb8, 0x3e, 0x1b, 0xbe, 0xe0, 0x97, 0xfd, 0x3c, 0x5c, 0x04, 0x28, 0xbe,
  0x80, 0x28, 0xaf, 0xbd, 0x48, 0x70, 0x4c, 0xbe, 0x38, 0x9a, 0xd4, 0x3d, 0x60, 0x38, 0xf4, 0xbc,
  0xa8, 0xff, 0xe4, 0x3d, 0xb8, 0x88, 0x5b, 0xbe, 0x84, 0xa9, 0x32, 0xbe, 0x04, 0xb3, 0x37, 0xbe,
  0x40, 0x88, 0x80, 0xbc, 0x24, 0x32, 0x5f, 0x3e, 0xcc, 0x28, 0x6a, 0xbe, 0xb3, 0x66, 0x56, 0xbe,
  0x22, 0xff, 0x3e, 0x3e, 0xf5, 0x1e, 0x52, 0xbe, 0xb5, 0x6b, 0x07, 0x3e, 0x4c, 0x1c, 0x30, 0xbe,
  0x6d, 0x25, 0x04, 0x3d, 0x9d, 0x48, 0x34, 0x3e, 0x95, 0xb9, 0x42, 0x3e, 0xaf, 0x27, 0x08, 0x3d,
  0xb4, 0xd9, 0xa9, 0x3d, 0x93, 0x39, 0x41, 0x3e, 0xec, 0x10, 0xdb, 0xbd, 0x35, 0x3c, 0x55, 0x3e,
  0x08, 0x76, 0x6b, 0xbe, 0x3b, 0xb6, 0x3c, 0x3e, 0x6c, 0xc7, 0xa1, 0x3d, 0x3a, 0x83, 0xab, 0xbd,
  0x21, 0xa4, 0x65, 0x3d, 0xbb, 0xa0, 0xf3, 0x3d, 0xec, 0xe8, 0xa9, 0xbd, 0xa2, 0x8c, 0xd0, 0x3d,
  0x60, 0x33, 0x27, 0xbe, 0x00, 0x1e, 0xd7, 0xbd, 0xcb, 0x67, 0x25, 0x3e, 0x16, 0x5d, 0x88, 0xbb,
  0xa5, 0x7b, 0xec, 0x3d, 0x7f, 0x00, 0x81, 0x3e, 0xf2, 0xb9, 0x6a, 0x3d, 0x41, 0x51, 0xfe, 0xbc,
  0xb3, 0x0b, 0x8e, 0x3d, 0xc2, 0x79, 0x10, 0xbe, 0x40, 0xb4, 0x28, 0xbe, 0x52, 0x22, 0x9e, 0x3d,
  0x8b, 0x1f, 0xe6, 0x3d, 0x67, 0xed, 0xe5, 0x3d, 0x57, 0xb4, 0x71, 0x3c, 0x58, 0x5f, 0xfb, 0x3d,
  0xe5, 0xbe, 0x87, 0xbc, 0x7a, 0x65, 0x6f, 0x3e, 0xf2, 0x7d, 0x5f, 0xbe, 0x04, 0xe1, 0x9c, 0x3d,
  0x06, 0xed, 0x22, 0xbc, 0x4c, 0xbf, 0x05, 0x3e, 0xc3, 0x60, 0xf7, 0x3d, 0xe8, 0x38, 0xee, 0x3d,
  0x8b, 0x3a, 0x15, 0xbe, 0x12, 0xcc, 0x51, 0xbe, 0xc2, 0xe2, 0x84, 0x3e, 0x89, 0xae, 0x68, 0x3e,
  0x78, 0xb0, 0x3b, 0x3e, 0xba, 0x1d, 0xae, 0xbd, 0xa4, 0x60, 0x45, 0xbe, 0xec, 0xe5, 0x03, 0x3d,
  0x7d, 0x63, 0x82, 0x3e, 0x5e, 0x9b, 0x80, 0x3d, 0x16, 0x2b, 0x14, 0x3e, 0x96, 0x2c, 0x0f, 0xbe,
  0x31, 0x2e, 0x79, 0xbc, 0x79, 0x1f, 0xe1, 0x3d, 0x98, 0x78, 0xf3, 0x3d, 0x6e, 0x37, 0x87, 0x3e,
  0x46, 0x1f, 0x0d, 0x3e, 0xe6, 0xfd, 0x31, 0xbe, 0x49, 0x25, 0xf3, 0x3d, 0x8a, 0xc5, 0x3c, 0x3e,
  0x3a, 0x8e, 0x52, 0x3e, 0x81, 0x26, 0x56, 0xbe, 0x54, 0xdf, 0x61, 0xbe, 0xa8, 0x45, 0x97, 0xbd,
  0xe6, 0x6d, 0x6d, 0x3d, 0x1a, 0x5b, 0xa3, 0x3b, 0x8b, 0x5f, 0x7e, 0xbb, 0xc7, 0xbb, 0x9c, 0xbc,
  0xa6, 0xf1, 0x1f, 0xbe, 0x79, 0xd6, 0x41, 0xbe, 0x27, 0x43, 0x43, 0x3e, 0xe3, 0xd9, 0xf4, 0xbd,
  0xae, 0xfe, 0xa1, 0x3c, 0xda, 0x5c, 0x74, 0x3e, 0x60, 0x3c, 0x49, 0x3d, 0xd8, 0x96, 0x42, 0x3e,
  0x3d, 0x83, 0x74, 0xbe, 0x5f, 0x28, 0x14, 0x3e, 0xc8, 0x95, 0x8a, 0xbd, 0x9a, 0xef, 0xf8, 0xbd,
  0xa4, 0x5f, 0x86, 0xbd, 0x60, 0x63, 0x44, 0xbd, 0x67, 0x7e, 0xed, 0xbd, 0xdd, 0xcc, 0x1b, 0xbe,
  0x3f, 0xa0, 0x58, 0x3e, 0x0a, 0x21, 0xf0, 0x3b, 0x79, 0x9e, 0x7e, 0x3c, 0xf8, 0xbe, 0x95, 0x3d,
  0x54, 0xe6, 0x4b, 0xbe, 0xf7, 0xc8, 0xda, 0xbd, 0x80, 0x66, 0x74, 0x3e, 0xb9, 0xae, 0x44, 0xbe,
  0x82, 0xa0, 0x0d, 0xbe, 0x15, 0xd4, 0x0e, 0x3e, 0x58, 0x17, 0x85, 0xbb, 0x49, 0xbc, 0x85, 0x3e,
  0xa0, 0x53, 0x65, 0x3e, 0x12, 0x1e, 0x7f, 0xbb, 0x3f, 0xea, 0x31, 0xbe, 0x36, 0xcb, 0x6a, 0xbd,
  0xfe, 0x29, 0x30, 0x3e, 0xf5, 0xd0, 0x87, 0x3d, 0x98, 0x75, 0x98, 0x3d, 0xbc, 0x68, 0x33, 0x3e,
  0xce, 0xb7, 0x46, 0x3e, 0x05, 0x0c, 0x8e, 0xbe, 0xcc, 0x7c, 0x1d, 0x3e, 0xdc, 0xe2, 0xcf, 0x3d,
  0xa0, 0x39, 0x0c, 0x3d, 0x29, 0x21, 0x2d, 0x3e, 0x36, 0x63, 0xfd, 0x3d, 0x3e, 0x77, 0x91, 0x3d,
  0x91, 0x85, 0x5e, 0xbe, 0x4c, 0x51, 0xb4, 0xbd, 0xb1, 0xf9, 0x69, 0x3c, 0x4b, 0xac, 0xc5, 0xbc,
  0xfc, 0xd3, 0x93, 0x3d, 0x7b, 0xcf, 0xd8, 0x3c, 0xc0, 0xed, 0x11, 0x3c, 0x17, 0x67, 0x1e, 0xbe,
  0x71, 0x7e, 0x4e, 0xbe, 0xb9, 0x38, 0x37, 0xbe, 0x55, 0xb8, 0x73, 0x3e, 0x89, 0xf5, 0x19, 0xbe,
  0xaf, 0x6a, 0x39, 0x3e, 0xaf, 0xb2, 0x0a, 0x3e, 0x95, 0xff, 0x3f, 0x3d, 0x80, 0x26, 0x13, 0x3c,
  0x3d, 0xa7, 0x02, 0x3c, 0xcb, 0x2d, 0x68, 0x3e, 0x2f, 0x99, 0xa0, 0xbd, 0xfc, 0xbb, 0xfd, 0xbd,
  0x72, 0x19, 0xec, 0xbd, 0x55, 0x05, 0x6a, 0xbe, 0xf5, 0x53, 0x4a, 0xbc, 0xce, 0xdf, 0xe9, 0x3d,
  0x3c, 0x98, 0xeb, 0xbd, 0x6d, 0xa6, 0x4b, 0x3e, 0x6d, 0x8c, 0x42, 0x3d, 0x23, 0x46, 0x22, 0x3e,
  0x9e, 0x93, 0x08, 0x3d, 0x90, 0x51, 0x94, 0xbd, 0x6b, 0xfe, 0x66, 0xbe, 0x6d, 0x23, 0xed, 0xbc,
  0x85, 0xfb, 0x88, 0xbd, 0x84, 0x0e, 0x57, 0xbe, 0x77, 0x51, 0xbf, 0x3d, 0xf0, 0xc2, 0xa2, 0xbc,
  0x2a, 0x06, 0x20, 0xbe, 0xe8, 0xcd, 0x5d, 0x3e, 0xb4, 0x8a, 0x41, 0xbe, 0xae, 0x59, 0x5c, 0x3e,
  0x01, 0x9c, 0x04, 0x3e, 0xf7, 0xd0, 0x59, 0x3e, 0x59, 0xc8, 0x41, 0x3e, 0x1c, 0x45, 0x03, 0x3e,
  0x0b, 0xf6, 0x31, 0x3d, 0x00, 0xd5, 0x1e, 0xbe, 0x39, 0xd5, 0x12, 0xbe, 0x04, 0xab, 0x1d, 0xbd,
  0x47, 0xca, 0x0d, 0x3e, 0xef, 0xbd, 0x66, 0xbe, 0x4b, 0xd3, 0x2f, 0x3e, 0xab, 0x73, 0x69, 0x3e,
  0x16, 0xa3, 0xc4, 0xbd, 0xe7, 0x66, 0x62, 0xbe, 0xd2, 0x27, 0x41, 0x3d, 0x00, 0x8d, 0x8c, 0xbb,
  0xaf, 0xcc, 0x49, 0x3e, 0x99, 0xde, 0x78, 0xbe, 0x5f, 0xa4, 0x12, 0x3e, 0xc1, 0xf4, 0x41, 0xbe,
  0x38, 0xe6, 0x5d, 0x3e, 0xe6, 0x8b, 0x4e, 0xbe, 0x0c, 0x17, 0x56, 0x3e, 0xfe, 0xec, 0x84, 0x3e,
  0x6f, 0x0f, 0xc5, 0xbd, 0x03, 0xcd, 0x70, 0xbe, 0x75, 0xb4, 0xad, 0x3d, 0x07, 0xb6, 0x43, 0x3d,
  0x4c, 0x51, 0x16, 0xbd, 0x45, 0xdc, 0xf6, 0x3d, 0x60, 0x5b, 0x7e, 0xbd, 0xb8, 0x1c, 0xd6, 0xbd,
  0x04, 0xc9, 0x8a, 0x3d, 0x87, 0x7e, 0x01, 0xbe, 0x5b, 0x8d, 0x06, 0xbe, 0x4a, 0x0b, 0x7e, 0xbe,
  0x39, 0xec, 0xf3, 0x3d, 0x9b, 0x96, 0x4e, 0xbd, 0xa6, 0x4f, 0x33, 0x3e, 0xd8, 0x64, 0xc5, 0xbd,
  0xe0, 0xe8, 0xae, 0x3c, 0x26, 0x99, 0x6e, 0xbe, 0x00, 0xca, 0xf9, 0x3b, 0x6e, 0xbc, 0xa7, 0xbd,
  0x08, 0x9a, 0x57, 0xbe, 0xa6, 0x2c, 0x06, 0x3e, 0x76, 0x09, 0x44, 0x3d, 0x9a, 0x14, 0x01, 0xbe,
  0x98, 0x5d, 0x1f, 0x3e, 0x27, 0x5a, 0x16, 0x3e, 0x88, 0x75, 0x2a, 0x3e, 0x94, 0x0b, 0x3d, 0xbe,
  0x10, 0x17, 0xb4, 0x3b, 0x4e, 0xe2, 0x6e, 0xbe, 0x40, 0x9f, 0x96, 0xbd, 0x29, 0x78, 0x09, 0xbe,
  0x70, 0x6a, 0x16, 0x3d, 0xc8, 0x25, 0xf8, 0x3d, 0x2d, 0x6a, 0xde, 0x3b, 0xa9, 0xeb, 0x56, 0xbe,
  0x3f, 0xa5, 0x21, 0x3c, 0x26, 0x02, 0x9a, 0x3d, 0xe4, 0x3e, 0xbd, 0xbc, 0x98, 0xa2, 0x6b, 0x3e,
  0x96, 0x39, 0x0d, 0x3e, 0xb5, 0xa4, 0xee, 0xbc, 0xd1, 0x18, 0x48, 0x3e, 0x39, 0x7c, 0x01, 0x3e,
  0x15, 0xd9, 0x02, 0x3e, 0x02, 0x62, 0x72, 0xbe, 0x11, 0x6d, 0xd3, 0xbb, 0x4d, 0x7c, 0x34, 0xbe,
  0x40, 0x28, 0x8c, 0xbe, 0x3b, 0x64, 0x5d, 0x3e, 0x04, 0xb1, 0x32, 0xbe, 0x87, 0x15, 0xdc, 0xbd,
  0x9b, 0x7c, 0xa9, 0xbb, 0xf9, 0xd9, 0x0a, 0x3e, 0x43, 0xb8, 0x3f, 0x3d, 0xbc, 0x1a, 0x75, 0x3e,
  0x63, 0xee, 0x23, 0xbe, 0x89, 0x9c, 0x88, 0x3e, 0xd4, 0x55, 0xa4, 0x3c, 0xff, 0x81, 0x8b, 0x3d,
  0x60, 0x11, 0x7a, 0x3e, 0xba, 0xd3, 0x5d, 0x3e, 0x2f, 0xd1, 0x83, 0xbe, 0xc1, 0x39, 0x3e, 0x3e,
  0xc8, 0x73, 0x24, 0x3e, 0x10, 0xec, 0x85, 0xbd, 0x32, 0x7b, 0xa7, 0x3d, 0xbb, 0x21, 0x9c, 0xbc,
  0xaf, 0x7f, 0xbb, 0xbd, 0x43, 0xcc, 0xab, 0x3c, 0xd8, 0x34, 0xa7, 0xbd, 0x2e, 0x76, 0x4a, 0xbe,
  0xcf, 0xd6, 0x14, 0x3e, 0xea, 0x66, 0x21, 0x3e, 0xee, 0x53, 0x28, 0xbe, 0xd2, 0xff, 0x33, 0x3e,
  0xc8, 0x92, 0xbb, 0xbd, 0x72, 0xa8, 0x22, 0x3d, 0xbd, 0x41, 0x93, 0x3d, 0x78, 0xed, 0x59, 0x3e,
  0x68, 0x8b, 0xaf, 0x3d, 0x34, 0x34, 0x8d, 0x3c, 0x70, 0x66, 0xf0, 0x3d, 0x12, 0x61, 0xd9, 0xbc,
  0x50, 0xa6, 0x75, 0xbe, 0x40, 0x48, 0x18, 0x3e, 0x83, 0xb8, 0x66, 0xbe, 0xc8, 0xcb, 0x70, 0xbe,
  0x8c, 0x29, 0x47, 0xbe, 0x28, 0xde, 0xde, 0x3d, 0xd3, 0x06, 0xa9, 0x3c, 0x3a, 0xee, 0x4e, 0x3d,
  0x3f, 0xc4, 0xc6, 0x3c, 0xef, 0x92, 0x00, 0x3e, 0xfa, 0x2c, 0xaf, 0xbd, 0x10, 0x42, 0x8a, 0xbd,
  0x60, 0xf1, 0x40, 0xbe, 0x60, 0x00, 0x93, 0xbd, 0xeb, 0xdb, 0xb8, 0xbd, 0xb5, 0x3a, 0x1b, 0xbc,
  0x43, 0x69, 0xf6, 0x3d, 0x97, 0x7a, 0xb7, 0x3d, 0xa2, 0x51, 0xcd, 0x3d, 0x40, 0x76, 0x13, 0x3d,
  0x32, 0x52, 0x5f, 0x3e, 0xb8, 0xb2, 0xda, 0xbd, 0x37, 0x88, 0xa1, 0xbb, 0xdf, 0x5a, 0x6d, 0x3c,
  0xd4, 0xf8, 0x4a, 0x3e, 0x86, 0xe3, 0xb0, 0x3c, 0xd5, 0x48, 0xa8, 0xbc, 0xda, 0x5e, 0x4f, 0xbe,
  0x56, 0x5d, 0x02, 0x3e, 0x4a, 0x62, 0x9e, 0xbd, 0x90, 0x15, 0xfe, 0xbc, 0xd4, 0xfb, 0xb8, 0x3d,
  0x43, 0xcb, 0x28, 0x3c, 0x15, 0x36, 0xde, 0x3d, 0x4e, 0xf1, 0x5a, 0x3e, 0x94, 0x1f, 0x3b, 0x3e,
  0xa6, 0xc2, 0xea, 0x3d, 0x2d, 0xb1, 0xef, 0x3c, 0x5f, 0x35, 0x0d, 0x3d, 0xf3, 0x1b, 0x9c, 0x3c,
  0x0c, 0x38, 0x40, 0xbe, 0x42, 0xec, 0xce, 0x3d, 0xf5, 0x1e, 0x42, 0xbe, 0x77, 0xab, 0xd1, 0xbd,
  0xc5, 0xd0, 0x22, 0x3e, 0x6b, 0x28, 0x7f, 0x3e, 0xa4, 0x41, 0x0e, 0xbe, 0xeb, 0x9a, 0xcf, 0xbd,
  0x9c, 0xd1, 0x27, 0xbb, 0x10, 0x7c, 0x27, 0x3e, 0xc0, 0xdb, 0x1b, 0x3c, 0xc8, 0x11, 0x08, 0xbe,
  0xe2, 0x9d, 0xd6, 0x3d, 0x49, 0x73, 0xba, 0x3c, 0xdd, 0x26, 0x4a, 0x3d, 0xce, 0xd5, 0x3f, 0x3e,
  0x2f, 0x71, 0x7d, 0xbe, 0x58, 0x77, 0xd9, 0x3d, 0xb8, 0x74, 0xfb, 0xbd, 0x34, 0xc8, 0x11, 0x3e,
  0xd8, 0x79, 0xa1, 0x3d, 0x1a, 0x6c, 0x75, 0x3e, 0xc8, 0x52, 0x68, 0xbd, 0x95, 0x2a, 0x5b, 0x3e,
  0x30, 0x53, 0x23, 0x3d, 0x6d, 0xba, 0x5a, 0xbe, 0x8b, 0x7f, 0x5f, 0x3d, 0xf4, 0x45, 0x3c, 0xbe,
  0x04, 0x95, 0x65, 0xbe, 0xcc, 0xec, 0x2e, 0x3e, 0xa6, 0xee, 0x58, 0xbe, 0xd7, 0xed, 0x0c, 0xbc,
  0x71, 0x59, 0x6f, 0x3e, 0x28, 0x0e, 0x69, 0xbe, 0xb0, 0xf2, 0x35, 0xbd, 0xce, 0xf3, 0x01, 0xbe,
  0x57, 0xf8, 0x2e, 0x3e, 0x10, 0xfd, 0x95, 0xbd, 0x15, 0xbd, 0xb8, 0xbd, 0x30, 0x3f, 0x52, 0xbe,
  0x60, 0x27, 0x21, 0xbe, 0x3c, 0xcf, 0x08, 0xbe, 0x50, 0x9d, 0xa1, 0xbd, 0x14, 0x74, 0x76, 0xbe,
  0x8f, 0x0e, 0x31, 0x3e, 0xe3, 0xc6, 0x04, 0x3e, 0xb9, 0x75, 0x27, 0x3e, 0xd0, 0x53, 0x16, 0xbd,
  0x00, 0x8e, 0xbe, 0xbd, 0x80, 0x04, 0x61, 0xbd, 0xa7, 0x75, 0xa9, 0xbd, 0xd9, 0x02, 0xa2, 0x3c,
  0xbe, 0x43, 0x5b, 0xbe, 0x80, 0x84, 0x9f, 0x3c, 0x94, 0xe2, 0xe6, 0xbd, 0xac, 0x20, 0x4a, 0xbd,
  0x98, 0xee, 0xb0, 0x3d, 0xb3, 0xa6, 0x64, 0x3e, 0xc4, 0xf7, 0x79, 0x3d, 0x68, 0x3e, 0x98, 0x3d,
  0x2c, 0x6c, 0x3c, 0xbe, 0x58, 0xf5, 0x9b, 0x3d, 0x0c, 0x68, 0xcc, 0xbc, 0x34, 0xa9, 0x01, 0x3e,
  0x80, 0xad, 0xa6, 0xbc, 0x3b, 0x48, 0xb7, 0xbd, 0xa0, 0xff, 0x65, 0xbe, 0xe6, 0x09, 0x78, 0x3e,
  0x61, 0x23, 0xd6, 0xbd, 0x28, 0x14, 0xa0, 0x3d, 0x1c, 0x85, 0x23, 0xbe, 0xea, 0x04, 0x2d, 0x3b,
  0x74, 0x76, 0x2b, 0xbe, 0xbc, 0x1a, 0x54, 0xbe, 0x84, 0xdf, 0x2a, 0xbe, 0x54, 0xd5, 0x29, 0x3d,
  0xd0, 0x4c, 0x03, 0x3d, 0x19, 0x37, 0x2a, 0xbe, 0x00, 0x00, 0x11, 0x39, 0x4d, 0xb6, 0x2d, 0x3d,
  0x17, 0x1d, 0x22, 0xbd, 0x7f, 0x92, 0xbf, 0xbd, 0x47, 0x66, 0xf0, 0xbd, 0xb0, 0x5c, 0x4b, 0xbe,
  0xd8, 0x8b, 0x1b, 0x3e, 0x41, 0x49, 0xc8, 0xbd, 0x42, 0x17, 0x72, 0x3d, 0xd1, 0x97, 0x18, 0x3d,
  0x31, 0x16, 0x12, 0xbe, 0xa3, 0xaf, 0x35, 0xbd, 0x05, 0x7e, 0x42, 0x3e, 0x92, 0xde, 0xa7, 0x3d,
  0x91, 0x02, 0xa0, 0x3d, 0x63, 0x5a, 0x0d, 0xbe, 0x66, 0x48, 0x62, 0x3e, 0x3d, 0x04, 0x23, 0xbe,
  0xf7, 0x4b, 0x3a, 0x3e, 0x46, 0x31, 0x23, 0xbe, 0x91, 0xf5, 0xbf, 0x3c, 0x2c, 0x16, 0x89, 0x3e,
  0x01, 0x9e, 0x8f, 0xbe, 0xa4, 0xe8, 0x6a, 0x3e, 0x05, 0x6d, 0x91, 0x3c, 0x02, 0xb5, 0x1b, 0x3e,
  0x94, 0xd7, 0x6b, 0x3d, 0x5d, 0x48, 0xb8, 0x3e, 0x01, 0x36, 0x45, 0x3e, 0x2e, 0xda, 0xef, 0x3b,
  0x26, 0x38, 0x1c, 0xbe, 0x58, 0xe7, 0x4c, 0x3e, 0x7f, 0xc8, 0xa0, 0xbb, 0x7a, 0xd5, 0xc9, 0x3d,
  0x63, 0xc6, 0x30, 0x3d, 0x4d, 0xf0, 0xc3, 0xbd, 0xca, 0x44, 0xb8, 0xbe, 0x1b, 0xb5, 0xbf, 0x3d,
  0xe1, 0x05, 0xc8, 0x3d, 0x28, 0xcd, 0x33, 0xbd, 0xe1, 0x8d, 0x89, 0x3c, 0x52, 0x49, 0x14, 0xbe,
  0xda, 0x96, 0x53, 0x3e, 0xea, 0x3a, 0xfe, 0x3d, 0xd8, 0xed, 0x9b, 0xbd, 0x50, 0x33, 0x5e, 0x3d,
  0xb2, 0xb5, 0x98, 0xbe, 0x2b, 0x13, 0xaa, 0x3c, 0x8f, 0xff, 0x04, 0x3e, 0x12, 0xa1, 0x94, 0xbc,
  0x90, 0xe7, 0x56, 0x3e, 0xaf, 0x24, 0x5e, 0xbc, 0x5c, 0x4a, 0x3d, 0xbe, 0xe3, 0x48, 0x33, 0x3e,
  0xae, 0x32, 0x38, 0xbe, 0x43, 0xeb, 0x64, 0x3e, 0x10, 0x8b, 0xb8, 0xbd, 0xa9, 0xa9, 0x52, 0x3e,
  0x24, 0x9c, 0x68, 0x3e, 0x9f, 0xe7, 0xb7, 0x3b, 0x80, 0xe5, 0x3e, 0xbc, 0xd8, 0xd1, 0x7c, 0xbe,
  0xda, 0xc4, 0x20, 0xbe, 0x57, 0x76, 0x2d, 0xbd, 0x6c, 0xf0, 0x2e, 0x3e, 0x1f, 0xcd, 0x3e, 0xbe,
  0x16, 0x1e, 0xdc, 0xbd, 0x49, 0xad, 0xf7, 0xbd, 0xfe, 0x62, 0x84, 0x3e, 0xc0, 0x60, 0x77, 0xbd,
  0xc4, 0x23, 0x3b, 0xbe, 0xba, 0x96, 0x03, 0x3e, 0xfc, 0xbc, 0x50, 0xbe, 0xe3, 0x6f, 0x4d, 0x3e,
  0xdf, 0x8e, 0x87, 0x3e, 0x19, 0x2c, 0xc1, 0xbd, 0xc4, 0xdd, 0xab, 0x3d, 0x03, 0xad, 0x06, 0x3e,
  0x05, 0xa5, 0x1a, 0x3e, 0x25, 0x6c, 0x5d, 0xbc, 0x9e, 0x60, 0xb2, 0x3d, 0x4f, 0xbb, 0xde, 0xba,
  0x0b, 0xab, 0x23, 0x3e, 0x61, 0xad, 0x41, 0x3e, 0xb7, 0xc2, 0x72, 0xbe, 0x37, 0xce, 0x0f, 0xbd,
  0xd8, 0x33, 0x99, 0xbd, 0x10, 0x9c, 0x51, 0x3d, 0xa9, 0xe3, 0x0b, 0x3e, 0x88, 0xa8, 0x9d, 0x3d,
  0xe1, 0x72, 0xfa, 0x3d, 0xf0, 0x8f, 0x4a, 0x3e, 0xd3, 0x0d, 0x06, 0xbe, 0x60, 0x0e, 0x9f, 0xbd,
  0x13, 0xf8, 0xf9, 0x3d, 0x95, 0x22, 0xda, 0x3d, 0x58, 0x0f, 0xa5, 0x3c, 0x65, 0x49, 0x00, 0xbe,
  0x15, 0xc6, 0xa0, 0x3d, 0x00, 0x24, 0xb0, 0xbd, 0x5d, 0xec, 0x46, 0xbe, 0x0f, 0xbf, 0x62, 0xbe,
  0x06, 0x1c, 0x0f, 0xbd, 0xbe, 0x96, 0xa7, 0xbd, 0xf7, 0xc2, 0x7b, 0xbd, 0x27, 0x37, 0x49, 0x3c,
  0xce, 0x9c, 0x3c, 0xbe, 0xe3, 0x82, 0x54, 0xbe, 0x00, 0xa1, 0x99, 0x3e, 0x38, 0xc3, 0x36, 0x3e,
  0x8d, 0xcc, 0x58, 0xbe, 0xbc, 0xb4, 0x94, 0xbe, 0xd5, 0x0d, 0x15, 0xbe, 0xe9, 0x9d, 0x35, 0xbe,
  0xe8, 0xd9, 0x25, 0xbe, 0x07, 0xb0, 0xa1, 0xbc, 0x2a, 0x64, 0xb6, 0x3d, 0x3c, 0x0a, 0x3f, 0xbe,
  0x5a, 0x65, 0xaa, 0xbd, 0xf0, 0x98, 0x56, 0xbe, 0x3e, 0x3d, 0x8f, 0x3e, 0x60, 0x10, 0xb4, 0x3d,
  0x81, 0xa2, 0x59, 0xbd, 0xff, 0x74, 0x15, 0x3e, 0x90, 0x92, 0x18, 0xbd, 0x26, 0xc9, 0x20, 0xbe,
  0xa2, 0xd2, 0xe0, 0x3d, 0x52, 0x6c, 0xf6, 0x3d, 0xa1, 0x2d, 0x74, 0x3e, 0x83, 0x2e, 0x26, 0x3e,
  0xb9, 0x89, 0x12, 0x3d, 0x14, 0x6b, 0x54, 0x3e, 0xbb, 0x8c, 0x10, 0x3e, 0x60, 0xdf, 0x76, 0xbd,
  0x78, 0x53, 0x66, 0xbe, 0x0f, 0xbd, 0x2c, 0x3e, 0x2a, 0xcb, 0x2c, 0x3e, 0xe3, 0x4e, 0x96, 0xbe,
  0xe5, 0x59, 0x25, 0xbe, 0x46, 0x03, 0x8e, 0xbc, 0x0b, 0x79, 0x5f, 0x3e, 0x04, 0xbd, 0x51, 0xbe,
  0x11, 0x36, 0x19, 0xbe, 0x96, 0x6b, 0x4f, 0xbd, 0xf2, 0xd7, 0x4b, 0xbc, 0xbd, 0xf6, 0x18, 0xbc,
  0x6f, 0x8c, 0xd9, 0xbd, 0x4e, 0x92, 0x6f, 0xbe, 0xf0, 0x5d, 0x45, 0xbe, 0xd4, 0x73, 0x62, 0x3e,
  0xcd, 0x16, 0x2d, 0xbe, 0x14, 0x7f, 0x47, 0xbe, 0xe0, 0x31, 0x4c, 0x3e, 0xa0, 0x76, 0x39, 0xbe,
  0x3b, 0x8a, 0x31, 0xbe, 0xb0, 0x39, 0x5c, 0xbe, 0x5d, 0xae, 0xf0, 0xbd, 0x9e, 0x68, 0x34, 0xbe,
  0x26, 0xc2, 0x81, 0x3d, 0xed, 0xd6, 0x67, 0x3e, 0x40, 0xd0, 0x5b, 0x3d, 0x40, 0x9f, 0x2e, 0x3e,
  0xe6, 0x9e, 0x8f, 0xbe, 0xeb, 0x83, 0xc4, 0xbb, 0x34, 0xa7, 0x72, 0xbe, 0xa4, 0xe8, 0x96, 0x3d,
  0x72, 0xee, 0x6d, 0xbe, 0x5b, 0x02, 0x97, 0xbc, 0x7b, 0x4a, 0xeb, 0xbd, 0xa2, 0xe3, 0x43, 0x3e,
  0xec, 0xd3, 0x2a, 0x3e, 0x7e, 0x93, 0xdb, 0xbc, 0xe1, 0xa0, 0x83, 0xbe, 0x58, 0xb3, 0x4c, 0x3e,
  0x37, 0xdb, 0x57, 0x3e, 0x12, 0x9c, 0x8d, 0x3e, 0xb5, 0xef, 0x11, 0xbd, 0x3e, 0x58, 0x9d, 0xbc,
  0x00, 0x84, 0xba, 0xbd, 0xd3, 0xb5, 0x8f, 0xbc, 0x0b, 0x3f, 0x07, 0x3e, 0xd4, 0x02, 0xff, 0xbc,
  0x30, 0x21, 0xa5, 0xbd, 0xb2, 0x3c, 0x39, 0xbe, 0xa4, 0xd0, 0x8b, 0xbd, 0x22, 0x9e, 0x6d, 0xbe,
  0x72, 0xeb, 0x2b, 0x3e, 0x0b, 0xd7, 0x19, 0x3e, 0x30, 0xc4, 0x28, 0xbe, 0x5b, 0xa6, 0x0f, 0xbe,
  0xc2, 0xed, 0xe4, 0xbd, 0xa3, 0xed, 0x57, 0xbe, 0x92, 0xcf, 0x61, 0xbd, 0xf7, 0xbd, 0x4a, 0x3e,
  0xad, 0xbb, 0x5c, 0x3e, 0x68, 0x45, 0x66, 0xbe, 0xcd, 0xa2, 0x4e, 0x3b, 0xb8, 0xc2, 0x0f, 0x3e,
  0x8a, 0x12, 0x24, 0xbe, 0xb5, 0xa6, 0x08, 0xbd, 0xde, 0x11, 0x24, 0x3e, 0x0a, 0xe0, 0xc0, 0xbc,
  0xb6, 0x24, 0xb0, 0xbd, 0x0e, 0x7a, 0x48, 0x3e, 0xcb, 0xfe, 0x82, 0xbe, 0x68, 0xc8, 0x87, 0x3d,
  0xf7, 0xc5, 0xc3, 0xbd, 0xdc, 0x2e, 0x60, 0x3d, 0xa4, 0x0f, 0x3c, 0x3e, 0x0d, 0x90, 0x10, 0x3d,
  0xa3, 0x62, 0x5f, 0xbe, 0x7e, 0xe5, 0x99, 0xbd, 0x7c, 0x8b, 0xe4, 0x3c, 0x2b, 0x08, 0xb3, 0x3c,
  0x57, 0x97, 0x5d, 0x3e, 0x36, 0x9b, 0x09, 0xbb, 0x2d, 0x6c, 0x04, 0x3e, 0xdf, 0xaa, 0x6c, 0xbe,
  0xcf, 0x1a, 0xe9, 0x3d, 0xa2, 0xb4, 0x5f, 0x3d, 0x28, 0xea, 0xd2, 0xbd, 0x6c, 0xf4, 0x12, 0x3e,
  0xd0, 0x2f, 0x1d, 0x3e, 0xee, 0x39, 0xe5, 0x3d, 0xa9, 0xef, 0xba, 0x3c, 0x80, 0x30, 0x95, 0xbd,
  0x7b, 0x1f, 0x2b, 0x3d, 0x97, 0x6c, 0x5c, 0xbe, 0x82, 0xfd, 0x8c, 0x3d, 0xdc, 0x28, 0x0a, 0xbc,
  0xd4, 0x24, 0x5d, 0x3e, 0x16, 0x31, 0xdb, 0x3d, 0x09, 0x78, 0xba, 0x3c, 0x58, 0x39, 0x2e, 0x3e,
  0xb4, 0xa4, 0x17, 0xbe, 0x4d, 0x79, 0xa0, 0x3d, 0xa0, 0xc1, 0x76, 0xbe, 0x20, 0x64, 0x49, 0x3d,
  0xbd, 0x0e, 0xfe, 0x3d, 0x24, 0x38, 0x97, 0xbd, 0xad, 0x8e, 0xc7, 0x3e, 0x0b, 0x9f, 0x46, 0x3e,
  0x7c, 0x0f, 0x13, 0xbe, 0x4e, 0xcc, 0x11, 0xbe, 0xc9, 0xf3, 0x81, 0x3e, 0xc9, 0x1c, 0xb2, 0x3d,
  0x1a, 0x64, 0x57, 0xbe, 0x98, 0xa3, 0x62, 0xbe, 0x38, 0x11, 0x4f, 0x3e, 0x2b, 0xc1, 0xd0, 0xbb,
  0x72, 0x99, 0x1d, 0x3d, 0x23, 0xf7, 0x87, 0x3d, 0x80, 0x63, 0x13, 0x3e, 0xeb, 0x31, 0x50, 0x3d,
  0xfc, 0x84, 0x28, 0x3e, 0x4e, 0x94, 0xdd, 0x3d, 0xc9, 0x18, 0x42, 0xbe, 0x56, 0xfc, 0xff, 0xff,
  0x04, 0x00, 0x00, 0x00, 0x80, 0x00, 0x00, 0x00, 0xc6, 0x8e, 0x3e, 0x3d, 0xbb, 0x60, 0x62, 0xbe,
  0x18, 0xf6, 0x0f, 0x3e, 0xa9, 0x00, 0x41, 0x3e, 0x66, 0x7a, 0x3a, 0x3e, 0x91, 0x06, 0xca, 0xbe,
  0x51, 0x49, 0x70, 0x3e, 0xe0, 0x84, 0x63, 0xbe, 0x78, 0xda, 0xed, 0xbd, 0x65, 0xa5, 0x31, 0xbe,
  0x52, 0xd6, 0xbb, 0xbe, 0x7b, 0x30, 0x7b, 0x3e, 0xf1, 0x0d, 0xb3, 0xbe, 0xe9, 0xa0, 0xfd, 0xbd,
  0x24, 0x63, 0x9c, 0x3e, 0x12, 0xe3, 0x00, 0x3e, 0xdb, 0x90, 0x35, 0xbe, 0xa4, 0xd0, 0x76, 0x3e,
  0xf6, 0xe8, 0xae, 0x3d, 0x7a, 0x9c, 0x6c, 0xbe, 0x12, 0x60, 0xa9, 0xbe, 0xef, 0x84, 0x78, 0xbe,
  0x15, 0x89, 0x43, 0x3d, 0x26, 0xf1, 0x6c, 0x3d, 0xfa, 0xb2, 0xdf, 0x3d, 0xc6, 0xc1, 0xb2, 0xbc,
  0x3b, 0x6c, 0xb8, 0xbe, 0x36, 0x20, 0x00, 0x3c, 0xfb, 0xf5, 0xc2, 0xbd, 0xd4, 0x91, 0x13, 0xbe,
  0xf0, 0xdb, 0x1e, 0xbe, 0xb8, 0x39, 0x9c, 0x3e, 0xe2, 0xfc, 0xff, 0xff, 0x04, 0x00, 0x00, 0x00,
  0x04, 0x00, 0x00, 0x00, 0xd1, 0x70, 0x8b, 0x3c, 0xf2, 0xfc, 0xff, 0xff, 0x04, 0x00, 0x00, 0x00,
  0x00, 0x01, 0x00, 0x00, 0x3e, 0x4a, 0x81, 0xbc, 0x10, 0x52, 0xee, 0x3b, 0xa3, 0x66, 0x00, 0xbb,
  0xba, 0xba, 0x3c, 0x3c, 0x00, 0x00, 0x00, 0x00, 0xdf, 0x9d, 0x80, 0xbc, 0xe0, 0xdb, 0x38, 0x3c,
  0x49, 0x5b, 0xea, 0xbc, 0x53, 0xd8, 0x67, 0x3c, 0x17, 0x84, 0x99, 0xbc, 0x2c, 0x17, 0xe8, 0x3b,
  0xb1, 0xcc, 0xa4, 0x3d, 0x4a, 0x1b, 0x4e, 0xbc, 0x70, 0xff, 0x1e, 0xbc, 0x84, 0x82, 0x8e, 0xbc,
  0x7d, 0x4c, 0x42, 0xbb, 0x07, 0x04, 0x4e, 0xbc, 0x08, 0xf0, 0x9d, 0x3d, 0x7f, 0x32, 0x84, 0x3c,
  0x8b, 0x0f, 0xb0, 0xbc, 0x13, 0x4a, 0xa7, 0x3c, 0xa4, 0x95, 0x82, 0xbd, 0x4d, 0xec, 0x61, 0xbc,
  0xde, 0x59, 0x9a, 0x3a, 0xbc, 0xbe, 0x00, 0x3d, 0x2d, 0xe6, 0x8a, 0x3c, 0x93, 0x81, 0x42, 0xbc,
  0x94, 0x7a, 0x01, 0xbc, 0xe1, 0x03, 0x60, 0xbc, 0x4b, 0xe1, 0x32, 0x3c, 0x42, 0x64, 0xed, 0x3c,
  0xfb, 0x85, 0x94, 0xbc, 0x19, 0x2a, 0xc5, 0xbc, 0xf0, 0x2f, 0x60, 0x3c, 0x49, 0x9a, 0xa4, 0xbc,
  0xa3, 0xa1, 0xa8, 0x3c, 0x07, 0xdd, 0xc9, 0x3c, 0xf9, 0x18, 0x05, 0x3c, 0x7e, 0x59, 0x8e, 0xbc,
  0x1f, 0xcb, 0xba, 0x3c, 0x92, 0xcd, 0xb7, 0x3c, 0x4e, 0xc3, 0x09, 0xbd, 0x9f, 0x79, 0x1a, 0xbd,
  0xcd, 0x7c, 0x5a, 0xbc, 0x00, 0x00, 0x00, 0x00, 0x66, 0x8c, 0x8e, 0xbc, 0xda, 0x80, 0xcc, 0x3d,
  0x77, 0xd6, 0xad, 0x3c, 0xdf, 0xd8, 0xa0, 0xbb, 0x00, 0x00, 0x00, 0x00, 0xfd, 0xd2, 0xb7, 0x3b,
  0xb7, 0x55, 0x48, 0x3c, 0x23, 0x9c, 0x87, 0x3c, 0x52, 0x2e, 0xa7, 0xbc, 0x2c, 0x0e, 0x86, 0xbc,
  0x45, 0x86, 0xe3, 0x3c, 0x7c, 0x19, 0x9e, 0x3c, 0xe6, 0xed, 0xce, 0xbc, 0x8a, 0xc6, 0x79, 0x3a,
  0x00, 0x00, 0x00, 0x00, 0xd4, 0x05, 0x49, 0x3c, 0xc5, 0x4f, 0x87, 0xbc, 0x55, 0xa3, 0x38, 0xbc,
  0x9c, 0x69, 0x70, 0xbc, 0xfe, 0xfd, 0xff, 0xff, 0x04, 0x00, 0x00, 0x00, 0x80, 0x00, 0x00, 0x00,
  0xb9, 0xbf, 0x7d, 0x3c, 0xfc, 0x99, 0xac, 0xbc, 0x00, 0x00, 0x00, 0x00, 0x10, 0xf1, 0x84, 0x3c,
  0x8f, 0xec, 0x00, 0xbc, 0xaf, 0x3f, 0xf4, 0xbb, 0xf7, 0x88, 0x86, 0x3c, 0xbf, 0xa2, 0x86, 0xbc,
  0x20, 0xea, 0x9c, 0xbc, 0x68, 0x84, 0x78, 0xbc, 0x9e, 0xc4, 0x86, 0x3d, 0xac, 0xbd, 0x9c, 0xb9,
  0x11, 0xc0, 0xae, 0xbc, 0x3b, 0x25, 0xf3, 0xbc, 0x3a, 0x70, 0x87, 0x3c, 0x1f, 0x56, 0x70, 0xbc,
  0xba, 0x4e, 0x60, 0xbc, 0x00, 0x00, 0x00, 0x00, 0x31, 0xc3, 0x73, 0x3c, 0x9d, 0x84, 0x88, 0xbc,
  0xd1, 0x3e, 0x42, 0xbc, 0x00, 0x00, 0x00, 0x00, 0x91, 0x8f, 0x72, 0x3c, 0x2a, 0x93, 0x8c, 0x3c,
  0x62, 0x3c, 0x80, 0x3c, 0x95, 0x3e, 0xe5, 0xbc, 0x36, 0x0c, 0xa6, 0xbc, 0x11, 0x12, 0xbe, 0xbc,
  0x21, 0xfb, 0x89, 0x3c, 0x08, 0xd8, 0x6c, 0xbc, 0xb4, 0x0f, 0xac, 0xbc, 0xe6, 0x10, 0x88, 0x3c,
  0x04, 0xf8, 0xff, 0xff, 0x08, 0xf8, 0xff, 0xff, 0x0f, 0x00, 0x00, 0x00, 0x4d, 0x4c, 0x49, 0x52,
  0x20, 0x43, 0x6f, 0x6e, 0x76, 0x65, 0x72, 0x74, 0x65, 0x64, 0x2e, 0x00, 0x01, 0x00, 0x00, 0x00,
  0x14, 0x00, 0x00, 0x00, 0x00, 0x00, 0x0e, 0x00, 0x18, 0x00, 0x14, 0x00, 0x10, 0x00, 0x0c, 0x00,
  0x08, 0x00, 0x04, 0x00, 0x0e, 0x00, 0x00, 0x00, 0x14, 0x00, 0x00, 0x00, 0x1c, 0x00, 0x00, 0x00,
  0xf8, 0x01, 0x00, 0x00, 0xfc, 0x01, 0x00, 0x00, 0x00, 0x02, 0x00, 0x00, 0x04, 0x00, 0x00, 0x00,
  0x6d, 0x61, 0x69, 0x6e, 0x00, 0x00, 0x00, 0x00, 0x07, 0x00, 0x00, 0x00, 0xa8, 0x01, 0x00, 0x00,
  0x48, 0x01, 0x00, 0x00, 0xf8, 0x00, 0x00, 0x00, 0xd0, 0x00, 0x00, 0x00, 0x88, 0x00, 0x00, 0x00,
  0x3c, 0x00, 0x00, 0x00, 0x04, 0x00, 0x00, 0x00, 0x92, 0xff, 0xff, 0xff, 0x14, 0x00, 0x00, 0x00,
  0x00, 0x00, 0x00, 0x08, 0x10, 0x00, 0x00, 0x00, 0x14, 0x00, 0x00, 0x00, 0x04, 0x00, 0x00, 0x00,
  0x94, 0xf8, 0xff, 0xff, 0x01, 0x00, 0x00, 0x00, 0x10, 0x00, 0x00, 0x00, 0x03, 0x00, 0x00, 0x00,
  0x0f, 0x00, 0x00, 0x00, 0x04, 0x00, 0x00, 0x00, 0x03, 0x00, 0x00, 0x00, 0xc6, 0xff, 0xff, 0xff,
  0x14, 0x00, 0x00, 0x00, 0x00, 0x00, 0x00, 0x08, 0x14, 0x00, 0x00, 0x00, 0x18, 0x00, 0x00, 0x00,
  0x04, 0x00, 0x00, 0x00, 0xaa, 0xfe, 0xff, 0xff, 0x00, 0x00, 0x00, 0x01, 0x01, 0x00, 0x00, 0x00,
  0x0f, 0x00, 0x00, 0x00, 0x03, 0x00, 0x00, 0x00, 0x0e, 0x00, 0x00, 0x00, 0x05, 0x00, 0x00, 0x00,
  0x01, 0x00, 0x00, 0x00, 0x00, 0x00, 0x0e, 0x00, 0x18, 0x00, 0x14, 0x00, 0x10, 0x00, 0x0c, 0x00,
  0x0b, 0x00, 0x04, 0x00, 0x0e, 0x00, 0x00, 0x00, 0x14, 0x00, 0x00, 0x00, 0x00, 0x00, 0x00, 0x08,
  0x14, 0x00, 0x00, 0x00, 0x18, 0x00, 0x00, 0x00, 0x04, 0x00, 0x00, 0x00, 0xf2, 0xfe, 0xff, 0xff,
  0x00, 0x00, 0x00, 0x01, 0x01, 0x00, 0x00, 0x00, 0x0e, 0x00, 0x00, 0x00, 0x03, 0x00, 0x00, 0x00,
  0x0d, 0x00, 0x00, 0x00, 0x06, 0x00, 0x00, 0x00, 0x02, 0x00, 0x00, 0x00, 0x00, 0x00, 0x0a, 0x00,
  0x10, 0x00, 0x0c, 0x00, 0x08, 0x00, 0x04, 0x00, 0x0a, 0x00, 0x00, 0x00, 0x0c, 0x00, 0x00, 0x00,
  0x10, 0x00, 0x00, 0x00, 0x03, 0x00, 0x00, 0x00, 0x01, 0x00, 0x00, 0x00, 0x0d, 0x00, 0x00, 0x00,
  0x02, 0x00, 0x00, 0x00, 0x00, 0x00, 0x00, 0x00, 0x0c, 0x00, 0x00, 0x00, 0xc2, 0xff, 0xff, 0xff,
  0x1c, 0x00, 0x00, 0x00, 0x00, 0x00, 0x00, 0x3b, 0x1c, 0x00, 0x00, 0x00, 0x20, 0x00, 0x00, 0x00,
  0x02, 0x00, 0x00, 0x00, 0x00, 0x00, 0x06, 0x00, 0x08, 0x00, 0x04, 0x00, 0x06, 0x00, 0x00, 0x00,
  0x02, 0x00, 0x00, 0x00, 0x01, 0x00, 0x00, 0x00, 0x0c, 0x00, 0x00, 0x00, 0x02, 0x00, 0x00, 0x00,
  0x0b, 0x00, 0x00, 0x00, 0x09, 0x00, 0x00, 0x00, 0x00, 0x00, 0x0e, 0x00, 0x1a, 0x00, 0x14, 0x00,
  0x10, 0x00, 0x0c, 0x00, 0x0b, 0x00, 0x04, 0x00, 0x0e, 0x00, 0x00, 0x00, 0x24, 0x00, 0x00, 0x00,
  0x00, 0x00, 0x00, 0x20, 0x24, 0x00, 0x00, 0x00, 0x28, 0x00, 0x00, 0x00, 0x01, 0x00, 0x00, 0x00,
  0x00, 0x00, 0x0e, 0x00, 0x08, 0x00, 0x00, 0x00, 0x00, 0x00, 0x00, 0x00, 0x00, 0x00, 0x04, 0x00,
  0x0e, 0x00, 0x00, 0x00, 0x01, 0x00, 0x00, 0x00, 0x01, 0x00, 0x00, 0x00, 0x0b, 0x00, 0x00, 0x00,
  0x04, 0x00, 0x00, 0x00, 0x0a, 0x00, 0x00, 0x00, 0x08, 0x00, 0x00, 0x00, 0x07, 0x00, 0x00, 0x00,
  0x07, 0x00, 0x00, 0x00, 0x00, 0x00, 0x0e, 0x00, 0x16, 0x00, 0x00, 0x00, 0x10, 0x00, 0x0c, 0x00,
  0x0b, 0x00, 0x04, 0x00, 0x0e, 0x00, 0x00, 0x00, 0x18, 0x00, 0x00, 0x00, 0x00, 0x00, 0x00, 0x37,
  0x18, 0x00, 0x00, 0x00, 0x1c, 0x00, 0x00, 0x00, 0x00, 0x00, 0x06, 0x00, 0x08, 0x00, 0x07, 0x00,
  0x06, 0x00, 0x00, 0x00, 0x00, 0x00, 0x00, 0x02, 0x01, 0x00, 0x00, 0x00, 0x0a, 0x00, 0x00, 0x00,
  0x01, 0x00, 0x00, 0x00, 0x00, 0x00, 0x00, 0x00, 0x01, 0x00, 0x00, 0x00, 0x10, 0x00, 0x00, 0x00,
  0x01, 0x00, 0x00, 0x00, 0x00, 0x00, 0x00, 0x00, 0x11, 0x00, 0x00, 0x00, 0x84, 0x05, 0x00, 0x00,
  0x30, 0x05, 0x00, 0x00, 0xdc, 0x04, 0x00, 0x00, 0xa0, 0x04, 0x00, 0x00, 0x60, 0x04, 0x00, 0x00,
  0x20, 0x04, 0x00, 0x00, 0xe0, 0x03, 0x00, 0x00, 0xa0, 0x03, 0x00, 0x00, 0x48, 0x03, 0x00, 0x00,
  0x0c, 0x03, 0x00, 0x00, 0xb8, 0x02, 0x00, 0x00, 0x60, 0x02, 0x00, 0x00, 0x04, 0x02, 0x00, 0x00,
  0xa0, 0x01, 0x00, 0x00, 0x00, 0x01, 0x00, 0x00, 0x60, 0x00, 0x00, 0x00, 0x04, 0x00, 0x00, 0x00,
  0xd6, 0xfa, 0xff, 0xff, 0x00, 0x00, 0x00, 0x01, 0x14, 0x00, 0x00, 0x00, 0x1c, 0x00, 0x00, 0x00,
  0x1c, 0x00, 0x00, 0x00, 0x11, 0x00, 0x00, 0x00, 0x34, 0x00, 0x00, 0x00, 0x02, 0x00, 0x00, 0x00,
  0xff, 0xff, 0xff, 0xff, 0x01, 0x00, 0x00, 0x00, 0xbc, 0xfa, 0xff, 0xff, 0x1b, 0x00, 0x00, 0x00,
  0x53, 0x74, 0x61, 0x74, 0x65, 0x66, 0x75, 0x6c, 0x50, 0x61, 0x72, 0x74, 0x69, 0x74, 0x69, 0x6f,
  0x6e, 0x65, 0x64, 0x43, 0x61, 0x6c, 0x6c, 0x5f, 0x31, 0x3a, 0x30, 0x00, 0x02, 0x00, 0x00, 0x00,
  0x01, 0x00, 0x00, 0x00, 0x01, 0x00, 0x00, 0x00, 0x2e, 0xfb, 0xff, 0xff, 0x00, 0x00, 0x00, 0x01,
  0x14, 0x00, 0x00, 0x00, 0x1c, 0x00, 0x00, 0x00, 0x1c, 0x00, 0x00, 0x00, 0x10, 0x00, 0x00, 0x00,
  0x78, 0x00, 0x00, 0x00, 0x02, 0x00, 0x00, 0x00, 0xff, 0xff, 0xff, 0xff, 0x20, 0x00, 0x00, 0x00,
