const unsigned char dense_bgl_model_tflite[] = {
  0x20, 0x00, 0x00, 0x00, 0x54, 0x46, 0x4c, 0x33, 0x00, 0x00, 0x00, 0x00,
  0x14, 0x00, 0x20, 0x00, 0x1c, 0x00, 0x18, 0x00, 0x14, 0x00, 0x10, 0x00,
  0x0c, 0x00, 0x00, 0x00, 0x08, 0x00, 0x04, 0x00, 0x14, 0x00, 0x00, 0x00,
  0x1c, 0x00, 0x00, 0x00, 0x8c, 0x00, 0x00, 0x00, 0xe4, 0x00, 0x00, 0x00,
  0x5c, 0x12, 0x00, 0x00, 0x6c, 0x12, 0x00, 0x00, 0x50, 0x1f, 0x00, 0x00,
  0x03, 0x00, 0x00, 0x00, 0x01, 0x00, 0x00, 0x00, 0x04, 0x00, 0x00, 0x00,
  0x8a, 0xec, 0xff, 0xff, 0x0c, 0x00, 0x00, 0x00, 0x1c, 0x00, 0x00, 0x00,
  0x3c, 0x00, 0x00, 0x00, 0x0f, 0x00, 0x00, 0x00, 0x73, 0x65, 0x72, 0x76,
  0x69, 0x6e, 0x67, 0x5f, 0x64, 0x65, 0x66, 0x61, 0x75, 0x6c, 0x74, 0x00,
  0x01, 0x00, 0x00, 0x00, 0x04, 0x00, 0x00, 0x00, 0x90, 0xff, 0xff, 0xff,
  0x10, 0x00, 0x00, 0x00, 0x04, 0x00, 0x00, 0x00, 0x08, 0x00, 0x00, 0x00,
  0x6f, 0x75, 0x74, 0x70, 0x75, 0x74, 0x5f, 0x30, 0x00, 0x00, 0x00, 0x00,
  0x01, 0x00, 0x00, 0x00, 0x04, 0x00, 0x00, 0x00, 0x92, 0xec, 0xff, 0xff,
  0x04, 0x00, 0x00, 0x00, 0x0f, 0x00, 0x00, 0x00, 0x6b, 0x65, 0x72, 0x61,
  0x73, 0x5f, 0x74, 0x65, 0x6e, 0x73, 0x6f, 0x72, 0x5f, 0x31, 0x37, 0x00,
  0x02, 0x00, 0x00, 0x00, 0x34, 0x00, 0x00, 0x00, 0x04, 0x00, 0x00, 0x00,
  0xdc, 0xff, 0xff, 0xff, 0x13, 0x00, 0x00, 0x00, 0x04, 0x00, 0x00, 0x00,
  0x13, 0x00, 0x00, 0x00, 0x43, 0x4f, 0x4e, 0x56, 0x45, 0x52, 0x53, 0x49,
  0x4f, 0x4e, 0x5f, 0x4d, 0x45, 0x54, 0x41, 0x44, 0x41, 0x54, 0x41, 0x00,
  0x08, 0x00, 0x0c, 0x00, 0x08, 0x00, 0x04, 0x00, 0x08, 0x00, 0x00, 0x00,
  0x12, 0x00, 0x00, 0x00, 0x04, 0x00, 0x00, 0x00, 0x13, 0x00, 0x00, 0x00,
  0x6d, 0x69, 0x6e, 0x5f, 0x72, 0x75, 0x6e, 0x74, 0x69, 0x6d, 0x65, 0x5f,
  0x76, 0x65, 0x72, 0x73, 0x69, 0x6f, 0x6e, 0x00, 0x14, 0x00, 0x00, 0x00,
  0x74, 0x11, 0x00, 0x00, 0x6c, 0x11, 0x00, 0x00, 0x58, 0x11, 0x00, 0x00,
  0x44, 0x11, 0x00, 0x00, 0x30, 0x11, 0x00, 0x00, 0xa0, 0x10, 0x00, 0x00,
  0x90, 0x0f, 0x00, 0x00, 0x7c, 0x0f, 0x00, 0x00, 0xec, 0x0e, 0x00, 0x00,
  0xdc, 0x06, 0x00, 0x00, 0xcc, 0x00, 0x00, 0x00, 0xc4, 0x00, 0x00, 0x00,
  0xbc, 0x00, 0x00, 0x00, 0xb4, 0x00, 0x00, 0x00, 0xac, 0x00, 0x00, 0x00,
  0xa4, 0x00, 0x00, 0x00, 0x9c, 0x00, 0x00, 0x00, 0x94, 0x00, 0x00, 0x00,
  0x74, 0x00, 0x00, 0x00, 0x04, 0x00, 0x00, 0x00, 0x5e, 0xed, 0xff, 0xff,
  0x04, 0x00, 0x00, 0x00, 0x60, 0x00, 0x00, 0x00, 0x0c, 0x00, 0x00, 0x00,
  0x08, 0x00, 0x0e, 0x00, 0x08, 0x00, 0x04, 0x00, 0x08, 0x00, 0x00, 0x00,
  0x10, 0x00, 0x00, 0x00, 0x28, 0x00, 0x00, 0x00, 0x00, 0x00, 0x06, 0x00,
  0x08, 0x00, 0x04, 0x00, 0x06, 0x00, 0x00, 0x00, 0x04, 0x00, 0x00, 0x00,
  0x01, 0x00, 0x00, 0x00, 0xea, 0x03, 0x00, 0x00, 0x0c, 0x00, 0x18, 0x00,
  0x14, 0x00, 0x10, 0x00, 0x0c, 0x00, 0x04, 0x00, 0x0c, 0x00, 0x00, 0x00,
  0xd5, 0xe8, 0x9f, 0xcc, 0xb5, 0xd8, 0x68, 0xa4, 0x02, 0x00, 0x00, 0x00,
  0x02, 0x00, 0x00, 0x00, 0x04, 0x00, 0x00, 0x00, 0x06, 0x00, 0x00, 0x00,
  0x32, 0x2e, 0x32, 0x30, 0x2e, 0x30, 0x00, 0x00, 0xca, 0xed, 0xff, 0xff,
  0x04, 0x00, 0x00, 0x00, 0x10, 0x00, 0x00, 0x00, 0x32, 0x2e, 0x31, 0x37,
  0x2e, 0x30, 0x00, 0x00, 0x00, 0x00, 0x00, 0x00, 0x00, 0x00, 0x00, 0x00,
  0xa4, 0xe2, 0xff, 0xff, 0xa8, 0xe2, 0xff, 0xff, 0xac, 0xe2, 0xff, 0xff,
  0xb0, 0xe2, 0xff, 0xff, 0xb4, 0xe2, 0xff, 0xff, 0xb8, 0xe2, 0xff, 0xff,
  0xbc, 0xe2, 0xff, 0xff, 0x02, 0xee, 0xff, 0xff, 0x04, 0x00, 0x00, 0x00,
  0x00, 0x06, 0x00, 0x00, 0x2e, 0xc5, 0x4c, 0x6e, 0x1e, 0xf4, 0x00, 0x45,
  0x93, 0x81, 0xf7, 0xe2, 0x59, 0xff, 0x6a, 0xdf, 0xd3, 0x4e, 0x75, 0x47,
  0xa7, 0x52, 0xf0, 0x9a, 0x18, 0xe1, 0x43, 0xc4, 0x61, 0x9f, 0x60, 0xb3,
  0x28, 0x0f, 0x73, 0x43, 0x25, 0xa1, 0xa8, 0x68, 0x2f, 0x7f, 0x73, 0x40,
  0x7c, 0x58, 0x9f, 0x50, 0x97, 0xf4, 0x1a, 0x59, 0x98, 0xb5, 0xb7, 0x97,
  0xb6, 0x1f, 0x81, 0x02, 0x67, 0x8e, 0x39, 0xe7, 0x85, 0x49, 0x40, 0x88,
  0x1d, 0x38, 0x2a, 0xc3, 0x00, 0x57, 0x93, 0x8d, 0x31, 0xe9, 0x2d, 0x1f,
  0xdd, 0xd7, 0x28, 0x55, 0x99, 0x44, 0x1b, 0x05, 0xa9, 0x41, 0x0c, 0xf6,
  0xd2, 0x49, 0xab, 0x7f, 0x1d, 0x96, 0x20, 0xbf, 0x20, 0x04, 0x07, 0x83,
  0x0a, 0xca, 0xe1, 0x99, 0xc4, 0x81, 0xf9, 0xbd, 0xfe, 0x69, 0x4f, 0x6d,
  0xbc, 0x85, 0x97, 0x0d, 0x32, 0xf1, 0xbd, 0xea, 0x81, 0xd2, 0x8f, 0x9f,
  0x1b, 0xab, 0x35, 0x27, 0xc1, 0x6e, 0x69, 0x63, 0xb0, 0xca, 0xc6, 0x92,
  0xb4, 0xe9, 0xde, 0x38, 0x29, 0xe2, 0xc9, 0x44, 0xd9, 0x39, 0x14, 0xf1,
  0xc8, 0xd6, 0xd8, 0x4c, 0x0f, 0x38, 0xcc, 0xcd, 0xec, 0xd3, 0x35, 0xe7,
  0x1b, 0x1d, 0xff, 0x7f, 0xda, 0xa0, 0xee, 0xc5, 0x59, 0x26, 0xb1, 0x9e,
  0x6f, 0xeb, 0xbf, 0xe5, 0xc5, 0xf7, 0x5a, 0x93, 0xfc, 0xe7, 0x1f, 0x55,
  0xac, 0x81, 0x34, 0x13, 0x29, 0x8b, 0x3a, 0x70, 0x4b, 0x12, 0x40, 0xa3,
  0xf9, 0x93, 0x21, 0x83, 0xce, 0xb0, 0xfd, 0x09, 0x5c, 0x7f, 0x4d, 0xc9,
  0x38, 0x10, 0xab, 0x5e, 0xfc, 0x8d, 0x24, 0x5c, 0x52, 0x2b, 0xb5, 0xfc,
  0x86, 0x23, 0xfd, 0x0f, 0x70, 0x81, 0x8c, 0x6e, 0x81, 0x55, 0xd1, 0xf3,
  0x12, 0xcc, 0xe3, 0x70, 0x90, 0x40, 0x18, 0x4e, 0x8f, 0x5b, 0x9f, 0x1d,
  0x25, 0x0c, 0xd5, 0xfb, 0x04, 0xb1, 0xa8, 0xe8, 0x50, 0x40, 0xcd, 0x7f,
  0x9f, 0x79, 0x77, 0xaf, 0x19, 0x40, 0x22, 0xd1, 0x0c, 0x58, 0x77, 0x18,
  0xe6, 0xaa, 0x50, 0xd3, 0x7f, 0xe0, 0xc2, 0xbf, 0xcc, 0xc8, 0x56, 0x8d,
  0xdb, 0x07, 0x40, 0xd3, 0xe3, 0xb4, 0xa0, 0x33, 0xc7, 0x81, 0x8d, 0x14,
  0x18, 0x1b, 0xc5, 0xf9, 0x00, 0xab, 0x6d, 0x02, 0x93, 0x08, 0x89, 0x3f,
  0x78, 0xf8, 0xcf, 0xde, 0xf4, 0x38, 0x74, 0x26, 0x12, 0xf9, 0x45, 0xb7,
  0x40, 0x96, 0xdf, 0x06, 0x8c, 0xda, 0x6a, 0x4e, 0x33, 0x21, 0xbe, 0x21,
  0x3a, 0xac, 0x55, 0x81, 0x9c, 0x60, 0x04, 0x6f, 0xe5, 0x8f, 0x95, 0x72,
  0x51, 0x8d, 0xee, 0x67, 0x35, 0xee, 0xa2, 0x8e, 0x28, 0x08, 0xeb, 0x31,
  0x69, 0x81, 0x42, 0x01, 0xd0, 0x9d, 0x87, 0xbb, 0x29, 0xa0, 0x8f, 0x08,
  0x1b, 0x14, 0xdd, 0xa1, 0x76, 0x5a, 0x7f, 0xe0, 0x0d, 0x13, 0xdb, 0x5b,
  0xf3, 0xd6, 0x0d, 0x1c, 0x35, 0x15, 0x40, 0x16, 0x5d, 0x69, 0xa2, 0x46,
  0x3a, 0x7f, 0xbb, 0xaa, 0xd1, 0x39, 0xff, 0xbb, 0x1e, 0xf0, 0xc7, 0xbc,
  0xbf, 0x9a, 0x6c, 0x85, 0x5e, 0x49, 0xbe, 0x07, 0x3a, 0xd3, 0x0f, 0xa7,
  0x3f, 0xf4, 0x87, 0x00, 0xda, 0xbf, 0x69, 0xaf, 0x7f, 0x2b, 0x65, 0xd8,
  0x19, 0xa5, 0x03, 0xa4, 0x2c, 0x32, 0x06, 0x13, 0xc7, 0x5c, 0x48, 0xb4,
  0xf6, 0x7f, 0xa0, 0x27, 0x0d, 0xa4, 0x3c, 0x26, 0xaf, 0x41, 0x97, 0xa3,
  0xe5, 0x7e, 0x11, 0x6e, 0x29, 0x12, 0x5e, 0x1c, 0x4e, 0xce, 0x1b, 0x9e,
  0x2a, 0x73, 0x94, 0xa4, 0x94, 0xde, 0x5d, 0xce, 0x45, 0x81, 0x4a, 0x52,
  0xa2, 0x4c, 0x14, 0xee, 0x76, 0x38, 0x66, 0x3f, 0x96, 0x81, 0x5a, 0x0e,
  0xef, 0xa5, 0xce, 0x9b, 0x21, 0x4b, 0x19, 0xb9, 0xcd, 0x0a, 0xa4, 0xca,
  0x25, 0x75, 0x18, 0x12, 0x25, 0xfc, 0x25, 0x52, 0x10, 0xb8, 0xd3, 0x3b,
  0xfb, 0xdb, 0xcf, 0xc2, 0x48, 0x9d, 0x98, 0x9e, 0xac, 0x8c, 0x18, 0x81,
  0x39, 0xd5, 0xf7, 0xc4, 0xfe, 0xd4, 0x81, 0x99, 0x22, 0x45, 0x74, 0xc3,
  0xef, 0xa5, 0xf5, 0xc7, 0xc3, 0x4e, 0xd8, 0x1c, 0xef, 0xb0, 0xc5, 0x20,
  0xde, 0x49, 0xf9, 0xbb, 0x19, 0xa4, 0xd1, 0xd8, 0x73, 0xd7, 0xe6, 0x0a,
  0xf0, 0x05, 0x57, 0x19, 0xf7, 0xb5, 0xce, 0x79, 0x40, 0x10, 0x71, 0xaa,
  0xa4, 0xea, 0x7f, 0x13, 0xe5, 0x09, 0x13, 0x0f, 0xe3, 0x04, 0xcd, 0x1f,
  0x14, 0xef, 0x10, 0x12, 0xdd, 0x3d, 0xcc, 0x38, 0xe7, 0xfb, 0xd8, 0xbd,
  0xbb, 0xaf, 0xbd, 0x81, 0xe6, 0xc7, 0x77, 0x46, 0x70, 0xd1, 0x81, 0x6c,
  0x31, 0x16, 0x09, 0x0d, 0x09, 0xd2, 0xf0, 0xce, 0x34, 0xea, 0xca, 0xa1,
  0xb0, 0xa8, 0x86, 0x42, 0xea, 0x3b, 0x2e, 0x5e, 0xfb, 0xdb, 0xb8, 0x7f,
  0x84, 0x55, 0x96, 0x39, 0x4f, 0x19, 0xa9, 0x4d, 0x41, 0xc7, 0x83, 0xcd,
  0xe9, 0x6a, 0x3d, 0xc7, 0xa9, 0x7a, 0x7f, 0xc1, 0x82, 0xd5, 0x15, 0x92,
  0x82, 0x9f, 0xdb, 0x2f, 0x09, 0xcf, 0x48, 0xd7, 0x7d, 0x8e, 0x7f, 0x7a,
  0xea, 0x43, 0xc6, 0xcc, 0x53, 0xc9, 0x25, 0x49, 0x8b, 0x1d, 0x8a, 0x82,
  0x62, 0x8c, 0x71, 0x63, 0xc0, 0xdb, 0xf9, 0x5c, 0xbf, 0xb2, 0x96, 0x81,
  0xd6, 0x96, 0x65, 0x96, 0xe4, 0x48, 0xf8, 0x05, 0xca, 0x27, 0xef, 0x00,
  0x57, 0x1b, 0xbd, 0xfd, 0x07, 0xe9, 0x61, 0xbf, 0xf7, 0x17, 0x1a, 0xe1,
  0xc4, 0xdc, 0xe5, 0x7f, 0x5c, 0xb5, 0x22, 0xfc, 0xe0, 0x0d, 0x19, 0x5a,
  0x77, 0x9b, 0x0b, 0xdf, 0xf4, 0x08, 0xfa, 0xb5, 0xfa, 0xae, 0x7f, 0x5c,
  0xcd, 0xac, 0x77, 0xbe, 0x23, 0xd7, 0x21, 0x36, 0x03, 0x4b, 0xa1, 0xb8,
  0x41, 0x21, 0x68, 0xd7, 0xaf, 0x42, 0x2d, 0xee, 0xf9, 0x69, 0x9c, 0xc9,
  0x51, 0x56, 0x6f, 0x81, 0x5b, 0xbf, 0x10, 0xc1, 0xc1, 0x34, 0x83, 0xf7,
  0xbc, 0x54, 0x26, 0xda, 0x7f, 0x6d, 0x7e, 0xd4, 0xa3, 0x78, 0xde, 0x37,
  0xee, 0x00, 0x28, 0xaf, 0xde, 0x4e, 0x39, 0x64, 0xdd, 0xd2, 0xa7, 0x27,
  0xf5, 0xc6, 0xaa, 0x93, 0xee, 0x95, 0x31, 0x26, 0x38, 0xde, 0x94, 0xb7,
  0xc1, 0x91, 0x0f, 0x81, 0x98, 0x97, 0x96, 0xb8, 0x2f, 0xec, 0xe7, 0x2e,
  0x52, 0x77, 0x64, 0xfd, 0x69, 0xdd, 0xaa, 0xfb, 0xf6, 0xfd, 0xe2, 0xeb,
  0x03, 0x38, 0x81, 0x07, 0x4b, 0x47, 0x26, 0x48, 0x87, 0xbd, 0x9b, 0x93,
  0xa2, 0xdf, 0xb6, 0xa4, 0xc3, 0x9d, 0x68, 0x72, 0x7f, 0x34, 0x6d, 0xca,
  0xa2, 0xa0, 0xf8, 0x25, 0x6c, 0x63, 0x8e, 0x61, 0x55, 0x3f, 0x33, 0x85,
  0xfb, 0x8e, 0x1e, 0x16, 0x89, 0xe5, 0xca, 0x7f, 0x65, 0x74, 0x72, 0xa6,
  0x15, 0xe5, 0x2f, 0xfc, 0xb9, 0x40, 0x2d, 0x6b, 0x81, 0x59, 0x11, 0x70,
  0xd5, 0x17, 0x37, 0x2f, 0xe1, 0x13, 0xcc, 0x4c, 0xb4, 0xe5, 0x2b, 0x2a,
  0xb2, 0x9b, 0x22, 0xbe, 0x57, 0x09, 0x42, 0x8d, 0xa2, 0xd1, 0x84, 0xf9,
  0x52, 0x16, 0xf7, 0x61, 0xbb, 0x24, 0x72, 0xbb, 0x38, 0x6c, 0xc8, 0x0b,
  0x81, 0x17, 0x83, 0x4a, 0xf4, 0x07, 0x7f, 0xbb, 0x36, 0xfd, 0x5c, 0x5f,
  0x2d, 0xd7, 0xfe, 0x2d, 0xd0, 0x6a, 0x95, 0xd2, 0xcc, 0x36, 0xf2, 0x76,
  0xe5, 0x5f, 0x35, 0x0e, 0x35, 0xb7, 0xec, 0x36, 0xce, 0xb0, 0x14, 0x3a,
  0xc3, 0xaa, 0x39, 0xe3, 0xb5, 0xa2, 0xd2, 0x64, 0x52, 0x3c, 0x78, 0x21,
  0x21, 0xcf, 0x7f, 0xe7, 0x94, 0xc0, 0x0b, 0x89, 0x9c, 0x08, 0xc9, 0x34,
  0x17, 0xe1, 0xb4, 0xe4, 0x01, 0xe5, 0xed, 0xe5, 0xf5, 0x01, 0x42, 0xde,
  0x4f, 0x58, 0x13, 0x7f, 0x13, 0xa6, 0x67, 0xb7, 0x9a, 0x13, 0x65, 0x8e,
  0x88, 0xa3, 0x3c, 0x60, 0x5d, 0xdb, 0xf2, 0xb4, 0x65, 0xd2, 0xc3, 0x61,
  0xe6, 0xff, 0x7f, 0xd6, 0x5e, 0xf5, 0x2e, 0x8d, 0xa9, 0xac, 0x8a, 0x96,
  0xf4, 0xe0, 0x69, 0x66, 0xd8, 0xc6, 0x81, 0x73, 0xcc, 0x07, 0x6a, 0x08,
  0x9f, 0x07, 0x9f, 0x52, 0x82, 0x70, 0x03, 0xc3, 0xa6, 0xb7, 0x1c, 0xee,
  0x18, 0xc9, 0xd6, 0x0b, 0xa5, 0xce, 0x02, 0xb9, 0xea, 0x81, 0x01, 0x7f,
  0x9c, 0xab, 0x1f, 0xad, 0xe7, 0x2f, 0x54, 0x16, 0xd3, 0x21, 0xe2, 0xbd,
  0xb5, 0x4b, 0x3a, 0xf3, 0xfe, 0x2a, 0x53, 0xe3, 0x56, 0x2d, 0xcf, 0xc7,
  0xf6, 0x81, 0x30, 0x7f, 0x1c, 0x3f, 0xde, 0x26, 0xb9, 0x33, 0x62, 0xba,
  0x73, 0x69, 0x46, 0xde, 0xdd, 0x50, 0x0e, 0xbc, 0x3a, 0x0a, 0x47, 0xc0,
  0xdb, 0xdc, 0x01, 0x81, 0x15, 0xcf, 0x2f, 0x11, 0xe9, 0xd5, 0x01, 0x04,
  0x10, 0xfe, 0xe9, 0xe0, 0x0c, 0x34, 0x30, 0xee, 0xf6, 0xe0, 0xf3, 0x0e,
  0xed, 0xdf, 0x0c, 0x7f, 0xa3, 0x6e, 0x2b, 0xb4, 0xa2, 0xd7, 0x79, 0xf4,
  0x54, 0x7f, 0x25, 0xbf, 0x2b, 0x99, 0x16, 0x12, 0x75, 0x8e, 0x18, 0xab,
  0x88, 0x35, 0x30, 0x5f, 0x2e, 0xf1, 0xc4, 0x88, 0x8f, 0xec, 0xcd, 0xea,
  0x45, 0x1c, 0xaa, 0x92, 0xa7, 0xe6, 0x2b, 0xc5, 0x7f, 0xb5, 0x0b, 0xe6,
  0xfd, 0x31, 0x17, 0xa1, 0x7d, 0xec, 0x28, 0xca, 0x87, 0xe2, 0xfe, 0x63,
  0xb3, 0x2d, 0x7a, 0x09, 0xbf, 0x81, 0x0c, 0x5f, 0x49, 0x73, 0xce, 0x07,
  0x29, 0x16, 0x0a, 0x7f, 0x44, 0x07, 0x31, 0xca, 0x57, 0xe1, 0xb6, 0x6d,
  0x59, 0xc2, 0xe7, 0xed, 0x1c, 0x18, 0xe9, 0x9b, 0xbe, 0xe9, 0x58, 0xf3,
  0x0b, 0x15, 0x19, 0x7f, 0xf7, 0xe4, 0xc2, 0x52, 0x3c, 0x0c, 0x2a, 0x39,
  0x7f, 0x35, 0x44, 0xbf, 0x9e, 0xe1, 0x9d, 0x6f, 0x18, 0xdd, 0xbe, 0x53,
  0x0b, 0x7c, 0xfc, 0xe8, 0x2c, 0xe1, 0x74, 0x15, 0x3c, 0x77, 0x36, 0x5f,
  0x04, 0x3b, 0xeb, 0x7f, 0xd2, 0x4b, 0xeb, 0x8e, 0x29, 0x9a, 0xdc, 0x6c,
  0xc7, 0x02, 0x25, 0xad, 0xf0, 0xae, 0x81, 0x2f, 0x07, 0xf0, 0xc1, 0xdc,
  0x64, 0xae, 0x9b, 0x32, 0x0c, 0x04, 0x34, 0xfd, 0xea, 0x1c, 0xf3, 0xdb,
  0x94, 0x4a, 0xc6, 0x27, 0xeb, 0x29, 0x0d, 0xcf, 0x08, 0x21, 0x35, 0xf7,
  0x32, 0xc6, 0x12, 0x1d, 0xcb, 0xdb, 0x0e, 0x22, 0xfa, 0xfb, 0xbd, 0xab,
  0xfe, 0xce, 0xe6, 0x7f, 0x17, 0xfe, 0x8f, 0xe0, 0xc6, 0x69, 0x2c, 0x5f,
  0x15, 0xd7, 0x66, 0x40, 0x29, 0x46, 0x81, 0xfa, 0x18, 0xa0, 0x55, 0xd4,
  0x20, 0x09, 0x25, 0xe3, 0x20, 0x2a, 0x30, 0xa8, 0xed, 0xb8, 0xeb, 0xcd,
  0x9b, 0x50, 0x0e, 0x81, 0x08, 0xa2, 0x59, 0x24, 0x5b, 0x65, 0x35, 0xf8,
  0x6a, 0xb5, 0xb1, 0xd2, 0x3b, 0x0d, 0x9f, 0x81, 0x9a, 0x95, 0x0d, 0xec,
  0xcf, 0x16, 0xac, 0x0b, 0x41, 0xa0, 0x64, 0xab, 0xe1, 0x32, 0xdb, 0x09,
  0xcf, 0xc3, 0xb1, 0x60, 0xb2, 0xdf, 0x41, 0x81, 0x82, 0xa8, 0x31, 0xe4,
  0xc1, 0x71, 0x91, 0xf0, 0x39, 0xbd, 0x41, 0x5a, 0xd6, 0x21, 0xe1, 0x4a,
  0xa5, 0x84, 0x31, 0xb0, 0x19, 0xf4, 0x62, 0x70, 0xc9, 0x7f, 0x76, 0xc4,
  0xe6, 0x07, 0x61, 0x8b, 0xef, 0x09, 0xd5, 0x29, 0x05, 0x91, 0xf9, 0xa4,
  0x6e, 0xca, 0xcb, 0x7e, 0x20, 0x8e, 0x2d, 0xd4, 0x5d, 0xe2, 0x4c, 0xdd,
  0xb5, 0x81, 0x55, 0x8d, 0x48, 0xd3, 0xf9, 0xf4, 0xd7, 0x58, 0x70, 0xa1,
  0xe8, 0x02, 0xfe, 0x38, 0x38, 0x3f, 0x1c, 0x35, 0xd8, 0x22, 0xec, 0xa5,
  0xa3, 0xde, 0xb1, 0x77, 0xb2, 0xf7, 0x9d, 0x25, 0x8a, 0x41, 0x00, 0x14,
  0x2e, 0x52, 0xaa, 0x7f, 0xeb, 0xde, 0xf5, 0x6d, 0xf7, 0x8b, 0xd5, 0xcf,
  0x35, 0xb8, 0xe2, 0x36, 0xce, 0x69, 0x2f, 0x44, 0xeb, 0x40, 0x5d, 0x81,
  0xab, 0xc5, 0xc7, 0x5d, 0x0e, 0xf4, 0xff, 0xff, 0x04, 0x00, 0x00, 0x00,
  0x00, 0x08, 0x00, 0x00, 0xe0, 0xf8, 0xdf, 0x66, 0xfa, 0x00, 0x43, 0x58,
  0xd2, 0xa4, 0x8e, 0xae, 0x64, 0xac, 0x90, 0xd5, 0x9f, 0xcd, 0xdd, 0xa9,
  0xea, 0xbe, 0xc3, 0x36, 0x25, 0xc2, 0xa4, 0x16, 0xd3, 0x7f, 0x38, 0x46,
  0x17, 0x6a, 0xc9, 0x77, 0xf2, 0xce, 0x19, 0x6e, 0x46, 0x1b, 0x0a, 0x51,
  0xdc, 0xd5, 0x17, 0xe1, 0x00, 0x29, 0x1d, 0xe0, 0x32, 0x9a, 0x36, 0xa7,
  0xa0, 0x5f, 0x0a, 0xef, 0xcc, 0x03, 0x91, 0xba, 0x35, 0x63, 0x3a, 0x81,
  0x1e, 0x50, 0x14, 0xd0, 0x90, 0x84, 0x15, 0xa4, 0xb2, 0x3a, 0xed, 0x8b,
  0xc1, 0xf8, 0xa8, 0x4b, 0xd3, 0x51, 0xfe, 0x9b, 0x5a, 0x2b, 0xbd, 0x75,
  0x31, 0x24, 0x8b, 0xe2, 0x63, 0xe1, 0xee, 0x25, 0x9c, 0x09, 0x25, 0xc9,
  0xb5, 0xef, 0x65, 0xa0, 0x7e, 0xb3, 0xae, 0xb2, 0x12, 0x29, 0x1a, 0x07,
  0xee, 0x01, 0x2d, 0x08, 0x6d, 0x91, 0xd9, 0xb4, 0x68, 0x3e, 0x50, 0x68,
  0x1c, 0xb3, 0xf0, 0x1a, 0x00, 0x34, 0xb8, 0x7e, 0x92, 0xff, 0xb1, 0x42,
  0x75, 0xc7, 0xa1, 0x10, 0x6b, 0x39, 0x99, 0xb6, 0x92, 0x8d, 0x30, 0xef,
  0x99, 0x90, 0x2d, 0x5b, 0xb6, 0x51, 0xfa, 0x82, 0x25, 0x35, 0xa4, 0xa7,
  0xf6, 0x50, 0xfc, 0xbe, 0x81, 0xb3, 0x42, 0xf8, 0xb6, 0xba, 0xfb, 0x6d,
  0x07, 0xa7, 0x65, 0x9d, 0xaa, 0x03, 0x82, 0x33, 0xa5, 0x13, 0x2d, 0x35,
  0x8d, 0x98, 0x53, 0x65, 0xe5, 0x08, 0x17, 0x48, 0xff, 0xd1, 0x10, 0xd2,
  0x2f, 0x16, 0x07, 0x07, 0x21, 0xd0, 0x3c, 0x39, 0xb4, 0xd3, 0xba, 0x55,
  0xdd, 0xf2, 0x27, 0x26, 0x2d, 0xbc, 0x04, 0xbc, 0x0a, 0x2f, 0x1e, 0x22,
  0xe6, 0xa0, 0x0f, 0x59, 0x47, 0x3c, 0xc9, 0x2c, 0x33, 0x26, 0x28, 0xb6,
  0xe2, 0xcb, 0xa5, 0x7f, 0xfd, 0x4c, 0x4d, 0x3e, 0x2e, 0x1c, 0x48, 0xe5,
  0xf2, 0xda, 0xd1, 0xae, 0x54, 0xd6, 0x39, 0x52, 0xeb, 0xfb, 0xfa, 0x35,
  0xfd, 0xd4, 0x2d, 0xe4, 0xec, 0xf3, 0x11, 0x0a, 0xfc, 0xf0, 0xf2, 0xf8,
  0x38, 0x04, 0x49, 0xfd, 0xeb, 0xf3, 0x1f, 0xfc, 0x29, 0xee, 0xbb, 0x16,
  0x24, 0x7f, 0xfc, 0xc9, 0xe6, 0xcd, 0x5f, 0x33, 0xf5, 0xe7, 0x1b, 0x34,
  0xfd, 0x27, 0x13, 0xf5, 0xc7, 0x12, 0xf4, 0x44, 0x71, 0xdb, 0xf0, 0x26,
  0x08, 0xde, 0x04, 0x23, 0x11, 0xe9, 0xc7, 0xe4, 0x10, 0x4a, 0xdf, 0x2c,
  0xc3, 0xa2, 0x0f, 0xc8, 0x2d, 0x12, 0x10, 0xd1, 0xf4, 0xd4, 0x3a, 0xcd,
  0x44, 0xe5, 0xd8, 0x00, 0xd3, 0xbe, 0xdd, 0x44, 0xeb, 0xa5, 0x0a, 0x49,
  0x35, 0xf8, 0x36, 0x45, 0x1c, 0xa1, 0x59, 0x2b, 0x4f, 0xa4, 0xd8, 0x1a,
  0xe7, 0x81, 0x15, 0x17, 0xbe, 0x37, 0x33, 0x12, 0x59, 0xdf, 0x08, 0x47,
  0xff, 0xbc, 0x15, 0x4f, 0xd4, 0xfe, 0xdc, 0x50, 0x20, 0x43, 0x0e, 0xfc,
  0x4a, 0x17, 0x56, 0x34, 0x4c, 0x53, 0xde, 0x34, 0x4d, 0x51, 0xe8, 0x12,
  0xf1, 0xb6, 0x5c, 0xfb, 0x68, 0xb2, 0x1c, 0xf7, 0xeb, 0xa5, 0xf7, 0xbb,
  0x52, 0x5f, 0xaf, 0x28, 0x53, 0x59, 0xa7, 0xa5, 0x9c, 0x60, 0x15, 0x2f,
  0x62, 0x4d, 0xe7, 0xae, 0x44, 0x35, 0x4e, 0x03, 0x28, 0xdc, 0x46, 0x9e,
  0x58, 0xee, 0x81, 0x07, 0x30, 0xa5, 0x54, 0x3b, 0x58, 0x39, 0x43, 0xdb,
  0x57, 0xaf, 0xd4, 0xdc, 0x68, 0xc4, 0x03, 0x3e, 0x56, 0xae, 0xc3, 0x17,
  0x9e, 0xe7, 0x45, 0xf1, 0xdf, 0x6c, 0xc3, 0xf9, 0x8b, 0x5c, 0x4d, 0x9a,
  0x6b, 0xe4, 0xf6, 0x41, 0x4b, 0xde, 0xa3, 0xb7, 0x1e, 0x43, 0x5c, 0x52,
  0xd4, 0x1b, 0x07, 0xf2, 0x0e, 0x43, 0x54, 0xf9, 0x41, 0x69, 0xbf, 0x37,
  0x62, 0x74, 0x1a, 0x2f, 0x34, 0x16, 0x7f, 0xe6, 0x3e, 0x0f, 0xa5, 0x03,
  0x41, 0x21, 0x9c, 0xef, 0xb3, 0x8a, 0xdd, 0x08, 0xa0, 0x67, 0xd9, 0xd3,
  0xa8, 0xc9, 0x33, 0x0d, 0x65, 0x61, 0xc1, 0x3e, 0xbc, 0x3d, 0x57, 0xd0,
  0x72, 0x76, 0x16, 0xbf, 0x23, 0x9b, 0x85, 0x69, 0x96, 0x2b, 0x2d, 0xd4,
  0x2d, 0x13, 0x4e, 0xcc, 0x63, 0xf0, 0xb5, 0xe3, 0xbf, 0x2b, 0x32, 0x01,
  0x4e, 0x81, 0xb0, 0x3c, 0x9f, 0xf1, 0xec, 0xc2, 0x83, 0x41, 0x6a, 0x3c,
  0xa8, 0xc8, 0x5e, 0x2c, 0xdb, 0xee, 0xf5, 0xd3, 0xa7, 0x46, 0x5e, 0x5f,
  0x1d, 0x32, 0x85, 0x9e, 0x1a, 0x24, 0xd1, 0x1c, 0x13, 0xb9, 0x81, 0xbe,
  0xb1, 0x8b, 0xb4, 0x09, 0x11, 0x25, 0x9e, 0x3e, 0xc3, 0x50, 0x37, 0x5f,
  0x3c, 0x15, 0x3b, 0xce, 0xc4, 0xb0, 0xe2, 0x70, 0xe4, 0x35, 0x68, 0x40,
  0xc2, 0xc0, 0xd1, 0xd9, 0x41, 0x31, 0xb5, 0x54, 0x4f, 0xde, 0x10, 0x6c,
  0xd8, 0xaa, 0x70, 0xe6, 0x4f, 0x1b, 0x95, 0x58, 0xfe, 0x8d, 0x21, 0x1a,
  0xa6, 0xf3, 0x45, 0x1e, 0x10, 0x4b, 0xd6, 0x0d, 0x6a, 0xc0, 0xec, 0xc2,
  0x41, 0x3c, 0x9d, 0xfd, 0xbf, 0x2c, 0x7f, 0x42, 0xb3, 0x10, 0x58, 0x43,
  0x2b, 0x1a, 0x37, 0xff, 0xd3, 0xb4, 0xcc, 0xea, 0xc8, 0x27, 0x29, 0xdf,
  0x05, 0xa2, 0x79, 0x30, 0x01, 0x18, 0x18, 0xf2, 0x37, 0x65, 0x0e, 0xf8,
  0x43, 0x14, 0xd2, 0x59, 0x1a, 0x93, 0x16, 0xee, 0x21, 0xb0, 0x36, 0xd3,
  0x00, 0xfc, 0x59, 0xb4, 0xf0, 0x61, 0x8e, 0xd2, 0xf2, 0x92, 0x14, 0x4c,
  0xc8, 0xe5, 0xb9, 0x0b, 0xf6, 0x35, 0xfb, 0x17, 0xef, 0xe7, 0x1d, 0x39,
  0x31, 0x15, 0x05, 0xf3, 0xe2, 0xfa, 0x0f, 0x08, 0xe3, 0x39, 0x27, 0xe9,
  0xbd, 0x3f, 0xd5, 0x32, 0x31, 0x7f, 0xcb, 0x11, 0xe2, 0xcb, 0x61, 0xea,
  0x11, 0x06, 0xe3, 0x0f, 0x23, 0x37, 0xea, 0xe7, 0xd2, 0xea, 0x06, 0x5a,
  0x37, 0xf5, 0x10, 0x1f, 0x2e, 0xcb, 0xf8, 0x2d, 0x15, 0x3b, 0x1b, 0xf8,
  0x0e, 0xdf, 0x09, 0xec, 0xee, 0x01, 0x43, 0x6c, 0x05, 0xc4, 0x92, 0xa7,
  0xe5, 0x67, 0xd6, 0xcd, 0x71, 0x2c, 0xe8, 0xc6, 0xeb, 0x06, 0x88, 0x33,
  0x0d, 0x44, 0xde, 0x84, 0x05, 0xb7, 0x70, 0x6a, 0x57, 0x2b, 0xce, 0x65,
  0x64, 0xc0, 0xe5, 0xfc, 0x31, 0x86, 0x69, 0xb9, 0xa2, 0x4c, 0xe5, 0xdf,
  0x29, 0x0f, 0xa4, 0x88, 0x4f, 0x61, 0x32, 0x25, 0xae, 0x31, 0x78, 0xdf,
  0x81, 0x49, 0x43, 0x2e, 0x34, 0xa9, 0x1c, 0x58, 0xda, 0x46, 0xe2, 0xc5,
  0x4e, 0x21, 0xfe, 0xe4, 0x9e, 0x18, 0x01, 0x82, 0xb6, 0x52, 0xe8, 0x2a,
  0xf2, 0xd3, 0x00, 0xd6, 0xd7, 0xa2, 0xc9, 0x12, 0x7f, 0xfd, 0xb6, 0x98,
  0x5b, 0x31, 0x61, 0xf2, 0x75, 0x4c, 0xeb, 0xcd, 0x05, 0x67, 0xac, 0x99,
  0x03, 0x28, 0x99, 0xd0, 0x56, 0xb3, 0x66, 0x26, 0x15, 0x63, 0x18, 0xa0,
  0xe1, 0xfb, 0xea, 0x23, 0xb4, 0xae, 0x54, 0xb8, 0x06, 0x59, 0x50, 0xe5,
  0x56, 0xff, 0xcb, 0x14, 0x15, 0xd3, 0x7f, 0x13, 0xd0, 0x27, 0xd8, 0xef,
  0x62, 0x02, 0x08, 0xdc, 0x53, 0xf5, 0x44, 0x3f, 0x4c, 0x68, 0xf9, 0x45,
  0x9d, 0xc7, 0x5c, 0xf9, 0x5d, 0x61, 0xf2, 0xe2, 0xa1, 0xe0, 0x3a, 0x52,
  0x66, 0xac, 0x16, 0x21, 0x3c, 0x2c, 0x43, 0x35, 0x46, 0x54, 0x45, 0x16,
  0x0b, 0x49, 0x60, 0x33, 0xba, 0x14, 0x10, 0x2a, 0xb6, 0xf4, 0xcc, 0x54,
  0x60, 0xb0, 0xee, 0x56, 0xf0, 0xf0, 0xe2, 0x21, 0xea, 0xbe, 0x5d, 0xd5,
  0x15, 0x39, 0x03, 0x0a, 0x3f, 0xe2, 0x11, 0x1b, 0x4c, 0x3e, 0x3d, 0xdb,
  0x29, 0xea, 0xff, 0x19, 0xd8, 0x7f, 0xca, 0x4b, 0xea, 0x05, 0x26, 0xcc,
  0x26, 0xea, 0x10, 0xb4, 0xfa, 0xb1, 0x42, 0xcf, 0xb8, 0x29, 0x07, 0x05,
  0x11, 0x33, 0xf8, 0x40, 0x12, 0xf6, 0xda, 0x43, 0xaf, 0x0c, 0x07, 0x36,
  0x23, 0xf1, 0xcf, 0xfd, 0xe4, 0x13, 0x3c, 0x0d, 0xac, 0x37, 0x48, 0xab,
  0x21, 0xab, 0x81, 0xa7, 0xd8, 0x1d, 0xb3, 0x3d, 0x16, 0x14, 0x23, 0x33,
  0xc7, 0xa2, 0x4e, 0x02, 0x57, 0x21, 0x1d, 0x0c, 0xf1, 0x43, 0xc4, 0x51,
  0xd6, 0x16, 0x3e, 0x3d, 0x14, 0xaf, 0xb2, 0x16, 0x2d, 0x1a, 0x3e, 0xd5,
  0x31, 0x51, 0xfe, 0x0a, 0xd0, 0xc3, 0xdf, 0xb6, 0x41, 0xcc, 0xbe, 0xe2,
  0x2d, 0xf4, 0xd2, 0xb1, 0xe7, 0x5b, 0x0c, 0xcb, 0x47, 0x16, 0x13, 0x59,
  0xd1, 0x6b, 0x02, 0xd1, 0x11, 0x3b, 0x7a, 0xfb, 0xa4, 0x62, 0x0c, 0xb4,
  0x46, 0x26, 0xe8, 0xfb, 0x36, 0xcb, 0xba, 0xcb, 0x47, 0xae, 0x1f, 0x1a,
  0x4c, 0x87, 0x48, 0x91, 0x7a, 0xe9, 0x3d, 0x3a, 0x31, 0x9a, 0xa5, 0x2d,
  0x22, 0x54, 0xe8, 0xa8, 0xa5, 0xb6, 0xdf, 0x65, 0xed, 0xce, 0xd7, 0x3a,
  0xe1, 0x1f, 0x81, 0xb8, 0xcd, 0x8c, 0xc2, 0xfb, 0x89, 0x96, 0x42, 0xf8,
  0x87, 0x14, 0xa2, 0x24, 0xd6, 0xd7, 0xd9, 0x5f, 0xb8, 0x08, 0x37, 0xc7,
  0x42, 0x09, 0x47, 0xdb, 0x53, 0x0c, 0xca, 0x3e, 0x0b, 0xee, 0xdc, 0x03,
  0xc1, 0xb4, 0x04, 0xe0, 0x45, 0xfd, 0xb8, 0x21, 0x2b, 0x7f, 0x24, 0xc1,
  0x45, 0x05, 0x3a, 0x3c, 0xee, 0xb6, 0xd4, 0x30, 0x0d, 0x32, 0x50, 0x48,
  0x30, 0x1e, 0xb1, 0x65, 0x10, 0x35, 0xec, 0xeb, 0xf5, 0xeb, 0x35, 0x44,
  0x4e, 0x3e, 0xc4, 0xf4, 0x1f, 0xe1, 0x28, 0x52, 0x45, 0x3a, 0x93, 0x37,
  0x6c, 0x99, 0xad, 0x9c, 0x06, 0x43, 0xba, 0x30, 0x15, 0x9b, 0x1e, 0x43,
  0x46, 0x4c, 0xdb, 0x6d, 0xdb, 0xba, 0xae, 0xa4, 0x6d, 0xa7, 0x4e, 0xab,
  0x8e, 0x50, 0xae, 0xd3, 0x20, 0xc1, 0x8c, 0xfd, 0x04, 0xe0, 0x19, 0x81,
  0x59, 0x98, 0x33, 0xb5, 0x97, 0x01, 0xa2, 0x93, 0xd5, 0xb3, 0x96, 0x6d,
  0xc0, 0xdc, 0x2b, 0xd7, 0x17, 0xa3, 0xb9, 0x01, 0x54, 0xb8, 0x9b, 0x43,
  0x0c, 0xc8, 0xa1, 0x36, 0xc5, 0xec, 0x88, 0x22, 0xa8, 0x3d, 0x5e, 0x54,
  0x81, 0xd4, 0x66, 0xc2, 0x51, 0xad, 0xdf, 0xcc, 0x1d, 0xf5, 0x30, 0x60,
  0x6f, 0xf1, 0x2a, 0x25, 0x3c, 0xbe, 0x18, 0x46, 0x9f, 0xcd, 0x19, 0xe2,
  0x48, 0xf6, 0x4d, 0x53, 0x42, 0xb6, 0x14, 0x50, 0x1f, 0x46, 0xd2, 0x44,
  0x33, 0x61, 0xf1, 0xbd, 0x2b, 0x2d, 0x1e, 0x4d, 0x69, 0x9c, 0xce, 0x53,
  0xad, 0x5d, 0x41, 0x5b, 0xfd, 0x8e, 0xe0, 0x98, 0x7b, 0x44, 0x98, 0xc7,
  0x06, 0xce, 0x94, 0xff, 0xda, 0x0c, 0xa6, 0xa2, 0x1b, 0x14, 0x7f, 0x9a,
  0xcc, 0x85, 0xb8, 0x23, 0x32, 0xa4, 0x30, 0xef, 0xbf, 0x01, 0xc6, 0x4b,
  0x4f, 0x1f, 0x61, 0x37, 0x9e, 0xcf, 0x86, 0x53, 0x75, 0xeb, 0x44, 0xbb,
  0xb7, 0xd1, 0x95, 0x62, 0x00, 0x9b, 0xb1, 0x10, 0xab, 0xd4, 0x99, 0x36,
  0xf1, 0x3a, 0x91, 0xa6, 0xa3, 0xf8, 0x71, 0x89, 0x9b, 0x5a, 0x9d, 0x40,
  0xad, 0x10, 0x55, 0x5b, 0x10, 0x28, 0x5b, 0xcd, 0x64, 0x91, 0x59, 0x26,
  0xd8, 0x1b, 0x39, 0xd8, 0x31, 0xb1, 0xcd, 0x4e, 0xfe, 0x38, 0x79, 0x1c,
  0xf1, 0x21, 0xbc, 0xb1, 0x25, 0x36, 0x36, 0x07, 0x3b, 0xf8, 0x70, 0x97,
  0x25, 0xfb, 0x3f, 0x3a, 0x38, 0xba, 0x9d, 0x7d, 0x6d, 0x58, 0xd7, 0xa3,
  0x0f, 0x7a, 0x1e, 0x46, 0xbd, 0xf9, 0x35, 0x39, 0x7f, 0x42, 0xac, 0x39,
  0x54, 0x5e, 0xa0, 0x9b, 0xde, 0x1b, 0x02, 0xfe, 0xf7, 0xb8, 0xa9, 0x57,
  0xc9, 0x09, 0x6d, 0x16, 0x57, 0x93, 0x42, 0xe1, 0xc8, 0xe2, 0xea, 0xcb,
  0xba, 0x61, 0x03, 0x07, 0x21, 0xa5, 0xcf, 0x6d, 0xa8, 0xc1, 0x40, 0xfe,
  0x78, 0x67, 0xfe, 0xb0, 0xe6, 0x4f, 0x1e, 0x22, 0x50, 0x59, 0x81, 0x46,
  0x2e, 0x10, 0x4d, 0x39, 0x21, 0x9d, 0xd8, 0x07, 0xf5, 0x21, 0x0c, 0x04,
  0xb9, 0xa4, 0xae, 0x6d, 0xb6, 0x59, 0x42, 0x17, 0x04, 0x04, 0x6f, 0xda,
  0xc3, 0xc8, 0x90, 0xfa, 0x38, 0xc8, 0x61, 0x17, 0x4e, 0x10, 0xdd, 0x92,
  0xf2, 0xdf, 0x99, 0x2e, 0xf6, 0xb4, 0x6a, 0xa4, 0x69, 0x3f, 0x68, 0x5d,
  0x3f, 0x15, 0xb4, 0xba, 0xed, 0x44, 0x92, 0x54, 0x70, 0xd1, 0x94, 0x17,
  0xfe, 0x60, 0x89, 0x46, 0xa3, 0x6a, 0x9d, 0x66, 0x7f, 0xd1, 0x8d, 0x29,
  0x17, 0xee, 0x3b, 0xe2, 0xcd, 0x21, 0xc2, 0xc0, 0x8d, 0x37, 0xe9, 0x51,
  0xd3, 0x0a, 0x94, 0x04, 0xda, 0x9e, 0x3d, 0x16, 0xc6, 0x48, 0x44, 0x4d,
  0xaa, 0x03, 0x94, 0xde, 0xc2, 0x11, 0x38, 0x03, 0x9f, 0x05, 0x23, 0xf5,
  0x6b, 0x40, 0xf2, 0x5b, 0x3b, 0x3b, 0x92, 0xfd, 0xae, 0x81, 0x64, 0xaf,
  0xce, 0xfe, 0x3f, 0x16, 0x6f, 0xb6, 0x7c, 0x09, 0x20, 0x71, 0x65, 0x89,
  0x56, 0x4b, 0xe2, 0x26, 0xf7, 0xd6, 0x0a, 0xda, 0xa4, 0x43, 0x49, 0xb4,
  0x5a, 0xd1, 0x14, 0x25, 0x6c, 0x2c, 0x09, 0x3c, 0xf2, 0x86, 0x4c, 0x8d,
  0x88, 0x9d, 0x37, 0x0b, 0x1a, 0x0c, 0x40, 0xd4, 0xde, 0xa0, 0xdb, 0xd2,
  0xfb, 0x3d, 0x2e, 0x33, 0x12, 0x6f, 0xca, 0xfd, 0x07, 0x65, 0x0b, 0xf6,
  0x99, 0x41, 0xd9, 0xf0, 0x2e, 0x05, 0x37, 0x6d, 0x5d, 0x3a, 0x0f, 0x12,
  0x0a, 0xa0, 0x33, 0x9f, 0xcc, 0x51, 0x7f, 0xb9, 0xcc, 0xff, 0x53, 0x05,
  0xbc, 0x35, 0x0c, 0x19, 0x60, 0x81, 0x36, 0xc1, 0x49, 0x28, 0x7b, 0xe3,
  0x6e, 0x14, 0x92, 0x1c, 0xa2, 0x8d, 0x58, 0x93, 0xfc, 0x78, 0x8b, 0xe9,
  0xbf, 0x58, 0xda, 0xd2, 0x97, 0xaf, 0xbb, 0xd8, 0x85, 0x59, 0x43, 0x54,
  0xed, 0xd0, 0xe4, 0xd6, 0x0a, 0x92, 0x0a, 0xc6, 0xe7, 0x2c, 0x73, 0x1f,
  0x26, 0xa2, 0x27, 0xf3, 0x41, 0xf6, 0xd2, 0x8d, 0x7c, 0xca, 0x28, 0xae,
  0x01, 0xaa, 0x96, 0xaa, 0x15, 0x10, 0xab, 0x00, 0x0f, 0xf2, 0xdf, 0xd7,
  0xba, 0x36, 0xdd, 0x15, 0x0d, 0xce, 0xf0, 0x43, 0x1d, 0x1c, 0xcf, 0x4e,
  0xc8, 0x40, 0xc8, 0x08, 0x5e, 0x9d, 0x51, 0x06, 0x36, 0x14, 0x7f, 0x44,
  0x03, 0xca, 0x47, 0xfe, 0x23, 0x0f, 0xde, 0x81, 0x21, 0x22, 0xf1, 0x06,
  0xcd, 0x49, 0x2c, 0xe5, 0x13, 0x97, 0x07, 0x2e, 0xfa, 0x4a, 0xfb, 0xbf,
  0x3e, 0xc1, 0x4f, 0xe0, 0x49, 0x50, 0x02, 0xfc, 0xa9, 0xc9, 0xf1, 0x3c,
  0xb1, 0xd3, 0xcd, 0x6d, 0xe6, 0xb3, 0x36, 0xaa, 0x55, 0x70, 0xd8, 0x24,
  0x38, 0x40, 0xfa, 0x25, 0xff, 0x44, 0x50, 0x9c, 0xf1, 0xe0, 0x16, 0x3a,
  0x21, 0x34, 0x54, 0xc9, 0xdf, 0x34, 0x2d, 0x09, 0xcb, 0x21, 0xdc, 0xae,
  0xa2, 0xf1, 0xdd, 0xe6, 0x05, 0xb2, 0xa8, 0x7f, 0x4c, 0xa6, 0x85, 0xc2,
  0xb5, 0xbb, 0xf8, 0x26, 0xb1, 0xdd, 0xa7, 0x76, 0x25, 0xea, 0x3e, 0xf0,
  0xbe, 0x2e, 0x33, 0x65, 0x46, 0x0f, 0x5a, 0x3d, 0xe6, 0x9f, 0x49, 0x49,
  0x81, 0xba, 0xf9, 0x5e, 0xa7, 0xbf, 0xea, 0xfb, 0xfc, 0xd2, 0x9b, 0xad,
  0x60, 0xb7, 0xac, 0x56, 0xb2, 0xb5, 0xa3, 0xcd, 0xb4, 0x1b, 0x62, 0x17,
  0x4a, 0x87, 0xfd, 0x99, 0x20, 0x9b, 0xf8, 0xce, 0x53, 0x48, 0xf4, 0x91,
  0x56, 0x5b, 0x78, 0xf1, 0xf8, 0xd9, 0xf8, 0x39, 0xf3, 0xdd, 0xb2, 0xe2,
  0x9c, 0x49, 0x41, 0xb9, 0xc3, 0xd0, 0xa5, 0xe8, 0x41, 0x46, 0xb7, 0x01,
  0x2e, 0xcc, 0xf5, 0x34, 0xf8, 0xe4, 0x40, 0xad, 0x16, 0xe1, 0x12, 0x3c,
  0x0c, 0xb9, 0xe8, 0x09, 0x07, 0x47, 0xff, 0x2a, 0xb5, 0x25, 0x12, 0xde,
  0x2f, 0x32, 0x24, 0x07, 0xe8, 0x0e, 0xba, 0x16, 0xfd, 0x46, 0x23, 0x07,
  0x37, 0xd0, 0x1a, 0xb1, 0x10, 0x28, 0xe8, 0x7f, 0x3f, 0xd1, 0xd2, 0x53,
  0x1c, 0xbb, 0xb8, 0x42, 0xfe, 0x0d, 0x16, 0x2f, 0x11, 0x36, 0x23, 0xc2,
  0x1a, 0xfc, 0xff, 0xff, 0x04, 0x00, 0x00, 0x00, 0x80, 0x00, 0x00, 0x00,
  0xc6, 0x8e, 0x3e, 0x3d, 0xbb, 0x60, 0x62, 0xbe, 0x18, 0xf6, 0x0f, 0x3e,
  0xa9, 0x00, 0x41, 0x3e, 0x66, 0x7a, 0x3a, 0x3e, 0x91, 0x06, 0xca, 0xbe,
  0x51, 0x49, 0x70, 0x3e, 0xe0, 0x84, 0x63, 0xbe, 0x78, 0xda, 0xed, 0xbd,
  0x65, 0xa5, 0x31, 0xbe, 0x52, 0xd6, 0xbb, 0xbe, 0x7b, 0x30, 0x7b, 0x3e,
  0xf1, 0x0d, 0xb3, 0xbe, 0xe9, 0xa0, 0xfd, 0xbd, 0x24, 0x63, 0x9c, 0x3e,
  0x12, 0xe3, 0x00, 0x3e, 0xdb, 0x90, 0x35, 0xbe, 0xa4, 0xd0, 0x76, 0x3e,
  0xf6, 0xe8, 0xae, 0x3d, 0x7a, 0x9c, 0x6c, 0xbe, 0x12, 0x60, 0xa9, 0xbe,
  0xef, 0x84, 0x78, 0xbe, 0x15, 0x89, 0x43, 0x3d, 0x26, 0xf1, 0x6c, 0x3d,
  0xfa, 0xb2, 0xdf, 0x3d, 0xc6, 0xc1, 0xb2, 0xbc, 0x3b, 0x6c, 0xb8, 0xbe,
  0x36, 0x20, 0x00, 0x3c, 0xfb, 0xf5, 0xc2, 0xbd, 0xd4, 0x91, 0x13, 0xbe,
  0xf0, 0xdb, 0x1e, 0xbe, 0xb8, 0x39, 0x9c, 0x3e, 0xa6, 0xfc, 0xff, 0xff,
  0x04, 0x00, 0x00, 0x00, 0x04, 0x00, 0x00, 0x00, 0xd1, 0x70, 0x8b, 0x3c,
  0xb6, 0xfc, 0xff, 0xff, 0x04, 0x00, 0x00, 0x00, 0x00, 0x01, 0x00, 0x00,
  0x3e, 0x4a, 0x81, 0xbc, 0x10, 0x52, 0xee, 0x3b, 0xa3, 0x66, 0x00, 0xbb,
  0xba, 0xba, 0x3c, 0x3c, 0x00, 0x00, 0x00, 0x00, 0xdf, 0x9d, 0x80, 0xbc,
  0xe0, 0xdb, 0x38, 0x3c, 0x49, 0x5b, 0xea, 0xbc, 0x53, 0xd8, 0x67, 0x3c,
  0x17, 0x84, 0x99, 0xbc, 0x2c, 0x17, 0xe8, 0x3b, 0xb1, 0xcc, 0xa4, 0x3d,
  0x4a, 0x1b, 0x4e, 0xbc, 0x70, 0xff, 0x1e, 0xbc, 0x84, 0x82, 0x8e, 0xbc,
  0x7d, 0x4c, 0x42, 0xbb, 0x07, 0x04, 0x4e, 0xbc, 0x08, 0xf0, 0x9d, 0x3d,
  0x7f, 0x32, 0x84, 0x3c, 0x8b, 0x0f, 0xb0, 0xbc, 0x13, 0x4a, 0xa7, 0x3c,
  0xa4, 0x95, 0x82, 0xbd, 0x4d, 0xec, 0x61, 0xbc, 0xde, 0x59, 0x9a, 0x3a,
  0xbc, 0xbe, 0x00, 0x3d, 0x2d, 0xe6, 0x8a, 0x3c, 0x93, 0x81, 0x42, 0xbc,
  0x94, 0x7a, 0x01, 0xbc, 0xe1, 0x03, 0x60, 0xbc, 0x4b, 0xe1, 0x32, 0x3c,
  0x42, 0x64, 0xed, 0x3c, 0xfb, 0x85, 0x94, 0xbc, 0x19, 0x2a, 0xc5, 0xbc,
  0xf0, 0x2f, 0x60, 0x3c, 0x49, 0x9a, 0xa4, 0xbc, 0xa3, 0xa1, 0xa8, 0x3c,
  0x07, 0xdd, 0xc9, 0x3c, 0xf9, 0x18, 0x05, 0x3c, 0x7e, 0x59, 0x8e, 0xbc,
  0x1f, 0xcb, 0xba, 0x3c, 0x92, 0xcd, 0xb7, 0x3c, 0x4e, 0xc3, 0x09, 0xbd,
  0x9f, 0x79, 0x1a, 0xbd, 0xcd, 0x7c, 0x5a, 0xbc, 0x00, 0x00, 0x00, 0x00,
  0x66, 0x8c, 0x8e, 0xbc, 0xda, 0x80, 0xcc, 0x3d, 0x77, 0xd6, 0xad, 0x3c,
  0xdf, 0xd8, 0xa0, 0xbb, 0x00, 0x00, 0x00, 0x00, 0xfd, 0xd2, 0xb7, 0x3b,
  0xb7, 0x55, 0x48, 0x3c, 0x23, 0x9c, 0x87, 0x3c, 0x52, 0x2e, 0xa7, 0xbc,
  0x2c, 0x0e, 0x86, 0xbc, 0x45, 0x86, 0xe3, 0x3c, 0x7c, 0x19, 0x9e, 0x3c,
  0xe6, 0xed, 0xce, 0xbc, 0x8a, 0xc6, 0x79, 0x3a, 0x00, 0x00, 0x00, 0x00,
  0xd4, 0x05, 0x49, 0x3c, 0xc5, 0x4f, 0x87, 0xbc, 0x55, 0xa3, 0x38, 0xbc,
  0x9c, 0x69, 0x70, 0xbc, 0xc2, 0xfd, 0xff, 0xff, 0x04, 0x00, 0x00, 0x00,
  0x80, 0x00, 0x00, 0x00, 0xb9, 0xbf, 0x7d, 0x3c, 0xfc, 0x99, 0xac, 0xbc,
  0x00, 0x00, 0x00, 0x00, 0x10, 0xf1, 0x84, 0x3c, 0x8f, 0xec, 0x00, 0xbc,
  0xaf, 0x3f, 0xf4, 0xbb, 0xf7, 0x88, 0x86, 0x3c, 0xbf, 0xa2, 0x86, 0xbc,
  0x20, 0xea, 0x9c, 0xbc, 0x68, 0x84, 0x78, 0xbc, 0x9e, 0xc4, 0x86, 0x3d,
  0xac, 0xbd, 0x9c, 0xb9, 0x11, 0xc0, 0xae, 0xbc, 0x3b, 0x25, 0xf3, 0xbc,
  0x3a, 0x70, 0x87, 0x3c, 0x1f, 0x56, 0x70, 0xbc, 0xba, 0x4e, 0x60, 0xbc,
  0x00, 0x00, 0x00, 0x00, 0x31, 0xc3, 0x73, 0x3c, 0x9d, 0x84, 0x88, 0xbc,
  0xd1, 0x3e, 0x42, 0xbc, 0x00, 0x00, 0x00, 0x00, 0x91, 0x8f, 0x72, 0x3c,
  0x2a, 0x93, 0x8c, 0x3c, 0x62, 0x3c, 0x80, 0x3c, 0x95, 0x3e, 0xe5, 0xbc,
  0x36, 0x0c, 0xa6, 0xbc, 0x11, 0x12, 0xbe, 0xbc, 0x21, 0xfb, 0x89, 0x3c,
  0x08, 0xd8, 0x6c, 0xbc, 0xb4, 0x0f, 0xac, 0xbc, 0xe6, 0x10, 0x88, 0x3c,
  0x4e, 0xfe, 0xff, 0xff, 0x04, 0x00, 0x00, 0x00, 0x04, 0x00, 0x00, 0x00,
  0x01, 0x00, 0x00, 0x00, 0x5e, 0xfe, 0xff, 0xff, 0x04, 0x00, 0x00, 0x00,
  0x04, 0x00, 0x00, 0x00, 0x00, 0x00, 0x00, 0x00, 0x6e, 0xfe, 0xff, 0xff,
  0x04, 0x00, 0x00, 0x00, 0x04, 0x00, 0x00, 0x00, 0x18, 0x00, 0x00, 0x00,
  0x3c, 0xf3, 0xff, 0xff, 0x40, 0xf3, 0xff, 0xff, 0x0f, 0x00, 0x00, 0x00,
  0x4d, 0x4c, 0x49, 0x52, 0x20, 0x43, 0x6f, 0x6e, 0x76, 0x65, 0x72, 0x74,
  0x65, 0x64, 0x2e, 0x00, 0x01, 0x00, 0x00, 0x00, 0x14, 0x00, 0x00, 0x00,
  0x00, 0x00, 0x0e, 0x00, 0x18, 0x00, 0x14, 0x00, 0x10, 0x00, 0x0c, 0x00,
  0x08, 0x00, 0x04, 0x00, 0x0e, 0x00, 0x00, 0x00, 0x14, 0x00, 0x00, 0x00,
  0x1c, 0x00, 0x00, 0x00, 0x04, 0x02, 0x00, 0x00, 0x08, 0x02, 0x00, 0x00,
  0x0c, 0x02, 0x00, 0x00, 0x04, 0x00, 0x00, 0x00, 0x6d, 0x61, 0x69, 0x6e,
  0x00, 0x00, 0x00, 0x00, 0x07, 0x00, 0x00, 0x00, 0xb4, 0x01, 0x00, 0x00,
  0x54, 0x01, 0x00, 0x00, 0x04, 0x01, 0x00, 0x00, 0xdc, 0x00, 0x00, 0x00,
  0x88, 0x00, 0x00, 0x00, 0x3c, 0x00, 0x00, 0x00, 0x04, 0x00, 0x00, 0x00,
  0x92, 0xff, 0xff, 0xff, 0x14, 0x00, 0x00, 0x00, 0x00, 0x00, 0x00, 0x08,
  0x10, 0x00, 0x00, 0x00, 0x14, 0x00, 0x00, 0x00, 0x04, 0x00, 0x00, 0x00,
  0xcc, 0xf3, 0xff, 0xff, 0x01, 0x00, 0x00, 0x00, 0x10, 0x00, 0x00, 0x00,
  0x03, 0x00, 0x00, 0x00, 0x0f, 0x00, 0x00, 0x00, 0x07, 0x00, 0x00, 0x00,
  0x06, 0x00, 0x00, 0x00, 0xc6, 0xff, 0xff, 0xff, 0x14, 0x00, 0x00, 0x00,
  0x00, 0x00, 0x00, 0x08, 0x14, 0x00, 0x00, 0x00, 0x18, 0x00, 0x00, 0x00,
  0x04, 0x00, 0x00, 0x00, 0xb8, 0xff, 0xff, 0xff, 0x00, 0x00, 0x01, 0x01,
  0x01, 0x00, 0x00, 0x00, 0x0f, 0x00, 0x00, 0x00, 0x03, 0x00, 0x00, 0x00,
  0x0e, 0x00, 0x00, 0x00, 0x08, 0x00, 0x00, 0x00, 0x04, 0x00, 0x00, 0x00,
  0x00, 0x00, 0x0e, 0x00, 0x18, 0x00, 0x14, 0x00, 0x10, 0x00, 0x0c, 0x00,
  0x0b, 0x00, 0x04, 0x00, 0x0e, 0x00, 0x00, 0x00, 0x20, 0x00, 0x00, 0x00,
  0x00, 0x00, 0x00, 0x08, 0x20, 0x00, 0x00, 0x00, 0x24, 0x00, 0x00, 0x00,
  0x04, 0x00, 0x00, 0x00, 0x0c, 0x00, 0x08, 0x00, 0x07, 0x00, 0x00, 0x00,
  0x00, 0x00, 0x06, 0x00, 0x0c, 0x00, 0x00, 0x00, 0x00, 0x00, 0x01, 0x01,
  0x01, 0x00, 0x00, 0x00, 0x0e, 0x00, 0x00, 0x00, 0x03, 0x00, 0x00, 0x00,
  0x0d, 0x00, 0x00, 0x00, 0x09, 0x00, 0x00, 0x00, 0x05, 0x00, 0x00, 0x00,
  0x00, 0x00, 0x0a, 0x00, 0x10, 0x00, 0x0c, 0x00, 0x08, 0x00, 0x04, 0x00,
  0x0a, 0x00, 0x00, 0x00, 0x0c, 0x00, 0x00, 0x00, 0x10, 0x00, 0x00, 0x00,
  0x03, 0x00, 0x00, 0x00, 0x01, 0x00, 0x00, 0x00, 0x0d, 0x00, 0x00, 0x00,
  0x02, 0x00, 0x00, 0x00, 0x00, 0x00, 0x00, 0x00, 0x0c, 0x00, 0x00, 0x00,
  0xc2, 0xff, 0xff, 0xff, 0x1c, 0x00, 0x00, 0x00, 0x00, 0x00, 0x00, 0x3b,
  0x1c, 0x00, 0x00, 0x00, 0x20, 0x00, 0x00, 0x00, 0x02, 0x00, 0x00, 0x00,
  0x00, 0x00, 0x06, 0x00, 0x08, 0x00, 0x04, 0x00, 0x06, 0x00, 0x00, 0x00,
  0x02, 0x00, 0x00, 0x00, 0x01, 0x00, 0x00, 0x00, 0x0c, 0x00, 0x00, 0x00,
  0x02, 0x00, 0x00, 0x00, 0x0b, 0x00, 0x00, 0x00, 0x01, 0x00, 0x00, 0x00,
  0x00, 0x00, 0x0e, 0x00, 0x1a, 0x00, 0x14, 0x00, 0x10, 0x00, 0x0c, 0x00,
  0x0b, 0x00, 0x04, 0x00, 0x0e, 0x00, 0x00, 0x00, 0x24, 0x00, 0x00, 0x00,
  0x00, 0x00, 0x00, 0x20, 0x24, 0x00, 0x00, 0x00, 0x28, 0x00, 0x00, 0x00,
  0x01, 0x00, 0x00, 0x00, 0x00, 0x00, 0x0e, 0x00, 0x08, 0x00, 0x00, 0x00,
  0x00, 0x00, 0x00, 0x00, 0x00, 0x00, 0x04, 0x00, 0x0e, 0x00, 0x00, 0x00,
  0x01, 0x00, 0x00, 0x00, 0x01, 0x00, 0x00, 0x00, 0x0b, 0x00, 0x00, 0x00,
  0x04, 0x00, 0x00, 0x00, 0x0a, 0x00, 0x00, 0x00, 0x02, 0x00, 0x00, 0x00,
  0x03, 0x00, 0x00, 0x00, 0x03, 0x00, 0x00, 0x00, 0x00, 0x00, 0x0e, 0x00,
  0x16, 0x00, 0x00, 0x00, 0x10, 0x00, 0x0c, 0x00, 0x0b, 0x00, 0x04, 0x00,
  0x0e, 0x00, 0x00, 0x00, 0x18, 0x00, 0x00, 0x00, 0x00, 0x00, 0x00, 0x37,
  0x18, 0x00, 0x00, 0x00, 0x1c, 0x00, 0x00, 0x00, 0x00, 0x00, 0x06, 0x00,
  0x08, 0x00, 0x07, 0x00, 0x06, 0x00, 0x00, 0x00, 0x00, 0x00, 0x00, 0x02,
  0x01, 0x00, 0x00, 0x00, 0x0a, 0x00, 0x00, 0x00, 0x01, 0x00, 0x00, 0x00,
  0x00, 0x00, 0x00, 0x00, 0x01, 0x00, 0x00, 0x00, 0x10, 0x00, 0x00, 0x00,
  0x01, 0x00, 0x00, 0x00, 0x00, 0x00, 0x00, 0x00, 0x11, 0x00, 0x00, 0x00,
  0x40, 0x0a, 0x00, 0x00, 0xec, 0x09, 0x00, 0x00, 0x94, 0x09, 0x00, 0x00,
  0x54, 0x09, 0x00, 0x00, 0x18, 0x09, 0x00, 0x00, 0xc4, 0x08, 0x00, 0x00,
  0x88, 0x08, 0x00, 0x00, 0x48, 0x08, 0x00, 0x00, 0x64, 0x06, 0x00, 0x00,
  0x0c, 0x03, 0x00, 0x00, 0xb8, 0x02, 0x00, 0x00, 0x60, 0x02, 0x00, 0x00,
  0x04, 0x02, 0x00, 0x00, 0xa0, 0x01, 0x00, 0x00, 0x00, 0x01, 0x00, 0x00,
  0x60, 0x00, 0x00, 0x00, 0x04, 0x00, 0x00, 0x00, 0x1a, 0xf6, 0xff, 0xff,
  0x00, 0x00, 0x00, 0x01, 0x14, 0x00, 0x00, 0x00, 0x1c, 0x00, 0x00, 0x00,
  0x1c, 0x00, 0x00, 0x00, 0x11, 0x00, 0x00, 0x00, 0x34, 0x00, 0x00, 0x00,
  0x02, 0x00, 0x00, 0x00, 0xff, 0xff, 0xff, 0xff, 0x01, 0x00, 0x00, 0x00,
  0x00, 0xf6, 0xff, 0xff, 0x1b, 0x00, 0x00, 0x00, 0x53, 0x74, 0x61, 0x74,
  0x65, 0x66, 0x75, 0x6c, 0x50, 0x61, 0x72, 0x74, 0x69, 0x74, 0x69, 0x6f,
  0x6e, 0x65, 0x64, 0x43, 0x61, 0x6c, 0x6c, 0x5f, 0x31, 0x3a, 0x30, 0x00,
  0x02, 0x00, 0x00, 0x00, 0x01, 0x00, 0x00, 0x00, 0x01, 0x00, 0x00, 0x00,
  0x72, 0xf6, 0xff, 0xff, 0x00, 0x00, 0x00, 0x01, 0x14, 0x00, 0x00, 0x00,
  0x1c, 0x00, 0x00, 0x00, 0x1c, 0x00, 0x00, 0x00, 0x10, 0x00, 0x00, 0x00,
  0x78, 0x00, 0x00, 0x00, 0x02, 0x00, 0x00, 0x00, 0xff, 0xff, 0xff, 0xff,
  0x20, 0x00, 0x00, 0x00, 0x58, 0xf6, 0xff, 0xff, 0x5e, 0x00, 0x00, 0x00,
  0x73, 0x65, 0x71, 0x75, 0x65, 0x6e, 0x74, 0x69, 0x61, 0x6c, 0x5f, 0x35,
  0x5f, 0x31, 0x2f, 0x64, 0x65, 0x6e, 0x73, 0x65, 0x5f, 0x38, 0x5f, 0x31,
  0x2f, 0x4d, 0x61, 0x74, 0x4d, 0x75, 0x6c, 0x3b, 0x73, 0x65, 0x71, 0x75,
  0x65, 0x6e, 0x74, 0x69, 0x61, 0x6c, 0x5f, 0x35, 0x5f, 0x31, 0x2f, 0x64,
  0x65, 0x6e, 0x73, 0x65, 0x5f, 0x38, 0x5f, 0x31, 0x2f, 0x52, 0x65, 0x6c,
  0x75, 0x3b, 0x73, 0x65, 0x71, 0x75, 0x65, 0x6e, 0x74, 0x69, 0x61, 0x6c,
  0x5f, 0x35, 0x5f, 0x31, 0x2f, 0x64, 0x65, 0x6e, 0x73, 0x65, 0x5f, 0x38,
  0x5f, 0x31, 0x2f, 0x42, 0x69, 0x61, 0x73, 0x41, 0x64, 0x64, 0x00, 0x00,
  0x02, 0x00, 0x00, 0x00, 0x01, 0x00, 0x00, 0x00, 0x20, 0x00, 0x00, 0x00,
  0x0e, 0xf7, 0xff, 0xff, 0x00, 0x00, 0x00, 0x01, 0x14, 0x00, 0x00, 0x00,
  0x1c, 0x00, 0x00, 0x00, 0x1c, 0x00, 0x00, 0x00, 0x0f, 0x00, 0x00, 0x00,
  0x78, 0x00, 0x00, 0x00, 0x02, 0x00, 0x00, 0x00, 0xff, 0xff, 0xff, 0xff,
  0x40, 0x00, 0x00, 0x00, 0xf4, 0xf6, 0xff, 0xff, 0x5e, 0x00, 0x00, 0x00,
  0x73, 0x65, 0x71, 0x75, 0x65, 0x6e, 0x74, 0x69, 0x61, 0x6c, 0x5f, 0x35,
  0x5f, 0x31, 0x2f, 0x64, 0x65, 0x6e, 0x73, 0x65, 0x5f, 0x37, 0x5f, 0x31,
  0x2f, 0x4d, 0x61, 0x74, 0x4d, 0x75, 0x6c, 0x3b, 0x73, 0x65, 0x71, 0x75,
  0x65, 0x6e, 0x74, 0x69, 0x61, 0x6c, 0x5f, 0x35, 0x5f, 0x31, 0x2f, 0x64,
  0x65, 0x6e, 0x73, 0x65, 0x5f, 0x37, 0x5f, 0x31, 0x2f, 0x52, 0x65, 0x6c,
  0x75, 0x3b, 0x73, 0x65, 0x71, 0x75, 0x65, 0x6e, 0x74, 0x69, 0x61, 0x6c,
  0x5f, 0x35, 0x5f, 0x31, 0x2f, 0x64, 0x65, 0x6e, 0x73, 0x65, 0x5f, 0x37,
  0x5f, 0x31, 0x2f, 0x42, 0x69, 0x61, 0x73, 0x41, 0x64, 0x64, 0x00, 0x00,
  0x02, 0x00, 0x00, 0x00, 0x01, 0x00, 0x00, 0x00, 0x40, 0x00, 0x00, 0x00,
  0xaa, 0xf7, 0xff, 0xff, 0x00, 0x00, 0x00, 0x01, 0x14, 0x00, 0x00, 0x00,
  0x1c, 0x00, 0x00, 0x00, 0x1c, 0x00, 0x00, 0x00, 0x0e, 0x00, 0x00, 0x00,
  0x3c, 0x00, 0x00, 0x00, 0x02, 0x00, 0x00, 0x00, 0xff, 0xff, 0xff, 0xff,
  0x18, 0x00, 0x00, 0x00, 0x90, 0xf7, 0xff, 0xff, 0x22, 0x00, 0x00, 0x00,
  0x73, 0x65, 0x71, 0x75, 0x65, 0x6e, 0x74, 0x69, 0x61, 0x6c, 0x5f, 0x35,
  0x5f, 0x31, 0x2f, 0x66, 0x6c, 0x61, 0x74, 0x74, 0x65, 0x6e, 0x5f, 0x31,
  0x5f, 0x31, 0x2f, 0x52, 0x65, 0x73, 0x68, 0x61, 0x70, 0x65, 0x00, 0x00,
  0x02, 0x00, 0x00, 0x00, 0x01, 0x00, 0x00, 0x00, 0x18, 0x00, 0x00, 0x00,
  0x5a, 0xf8, 0xff, 0xff, 0x00, 0x00, 0x00, 0x01, 0x14, 0x00, 0x00, 0x00,
  0x14, 0x00, 0x00, 0x00, 0x0d, 0x00, 0x00, 0x00, 0x00, 0x00, 0x00, 0x02,
  0x38, 0x00, 0x00, 0x00, 0xe4, 0xf7, 0xff, 0xff, 0x28, 0x00, 0x00, 0x00,
  0x73, 0x65, 0x71, 0x75, 0x65, 0x6e, 0x74, 0x69, 0x61, 0x6c, 0x5f, 0x35,
  0x5f, 0x31, 0x2f, 0x66, 0x6c, 0x61, 0x74, 0x74, 0x65, 0x6e, 0x5f, 0x31,
  0x5f, 0x31, 0x2f, 0x52, 0x65, 0x73, 0x68, 0x61, 0x70, 0x65, 0x2f, 0x73,
  0x68, 0x61, 0x70, 0x65, 0x00, 0x00, 0x00, 0x00, 0x01, 0x00, 0x00, 0x00,
  0x02, 0x00, 0x00, 0x00, 0xb2, 0xf8, 0xff, 0xff, 0x00, 0x00, 0x00, 0x01,
  0x14, 0x00, 0x00, 0x00, 0x14, 0x00, 0x00, 0x00, 0x0c, 0x00, 0x00, 0x00,
  0x00, 0x00, 0x00, 0x02, 0x38, 0x00, 0x00, 0x00, 0x3c, 0xf8, 0xff, 0xff,
  0x28, 0x00, 0x00, 0x00, 0x73, 0x65, 0x71, 0x75, 0x65, 0x6e, 0x74, 0x69,
  0x61, 0x6c, 0x5f, 0x35, 0x5f, 0x31, 0x2f, 0x66, 0x6c, 0x61, 0x74, 0x74,
  0x65, 0x6e, 0x5f, 0x31, 0x5f, 0x31, 0x2f, 0x73, 0x74, 0x72, 0x69, 0x64,
  0x65, 0x64, 0x5f, 0x73, 0x6c, 0x69, 0x63, 0x65, 0x00, 0x00, 0x00, 0x00,
  0x00, 0x00, 0x00, 0x00, 0x06, 0xf9, 0xff, 0xff, 0x00, 0x00, 0x00, 0x01,
  0x14, 0x00, 0x00, 0x00, 0x14, 0x00, 0x00, 0x00, 0x0b, 0x00, 0x00, 0x00,
  0x00, 0x00, 0x00, 0x02, 0x30, 0x00, 0x00, 0x00, 0x90, 0xf8, 0xff, 0xff,
  0x20, 0x00, 0x00, 0x00, 0x73, 0x65, 0x71, 0x75, 0x65, 0x6e, 0x74, 0x69,
  0x61, 0x6c, 0x5f, 0x35, 0x5f, 0x31, 0x2f, 0x66, 0x6c, 0x61, 0x74, 0x74,
  0x65, 0x6e, 0x5f, 0x31, 0x5f, 0x31, 0x2f, 0x53, 0x68, 0x61, 0x70, 0x65,
  0x00, 0x00, 0x00, 0x00, 0x01, 0x00, 0x00, 0x00, 0x03, 0x00, 0x00, 0x00,
  0x56, 0xf9, 0xff, 0xff, 0x00, 0x00, 0x00, 0x01, 0x14, 0x00, 0x00, 0x00,
  0x24, 0x03, 0x00, 0x00, 0x0a, 0x00, 0x00, 0x00, 0x00, 0x00, 0x00, 0x09,
  0x30, 0x03, 0x00, 0x00, 0xac, 0xfc, 0xff, 0xff, 0x08, 0x00, 0x00, 0x00,
  0x08, 0x02, 0x00, 0x00, 0x40, 0x00, 0x00, 0x00, 0x00, 0x00, 0x00, 0x00,
  0x00, 0x00, 0x00, 0x00, 0x00, 0x00, 0x00, 0x00, 0x00, 0x00, 0x00, 0x00,
  0x00, 0x00, 0x00, 0x00, 0x00, 0x00, 0x00, 0x00, 0x00, 0x00, 0x00, 0x00,
  0x00, 0x00, 0x00, 0x00, 0x00, 0x00, 0x00, 0x00, 0x00, 0x00, 0x00, 0x00,
  0x00, 0x00, 0x00, 0x00, 0x00, 0x00, 0x00, 0x00, 0x00, 0x00, 0x00, 0x00,
  0x00, 0x00, 0x00, 0x00, 0x00, 0x00, 0x00, 0x00, 0x00, 0x00, 0x00, 0x00,
  0x00, 0x00, 0x00, 0x00, 0x00, 0x00, 0x00, 0x00, 0x00, 0x00, 0x00, 0x00,
  0x00, 0x00, 0x00, 0x00, 0x00, 0x00, 0x00, 0x00, 0x00, 0x00, 0x00, 0x00,
  0x00, 0x00, 0x00, 0x00, 0x00, 0x00, 0x00, 0x00, 0x00, 0x00, 0x00, 0x00,
  0x00, 0x00, 0x00, 0x00, 0x00, 0x00, 0x00, 0x00, 0x00, 0x00, 0x00, 0x00,
  0x00, 0x00, 0x00, 0x00, 0x00, 0x00, 0x00, 0x00, 0x00, 0x00, 0x00, 0x00,
  0x00, 0x00, 0x00, 0x00, 0x00, 0x00, 0x00, 0x00, 0x00, 0x00, 0x00, 0x00,
  0x00, 0x00, 0x00, 0x00, 0x00, 0x00, 0x00, 0x00, 0x00, 0x00, 0x00, 0x00,
  0x00, 0x00, 0x00, 0x00, 0x00, 0x00, 0x00, 0x00, 0x00, 0x00, 0x00, 0x00,
  0x00, 0x00, 0x00, 0x00, 0x00, 0x00, 0x00, 0x00, 0x00, 0x00, 0x00, 0x00,
  0x00, 0x00, 0x00, 0x00, 0x00, 0x00, 0x00, 0x00, 0x00, 0x00, 0x00, 0x00,
  0x00, 0x00, 0x00, 0x00, 0x00, 0x00, 0x00, 0x00, 0x00, 0x00, 0x00, 0x00,
  0x00, 0x00, 0x00, 0x00, 0x00, 0x00, 0x00, 0x00, 0x00, 0x00, 0x00, 0x00,
  0x00, 0x00, 0x00, 0x00, 0x00, 0x00, 0x00, 0x00, 0x00, 0x00, 0x00, 0x00,
  0x00, 0x00, 0x00, 0x00, 0x00, 0x00, 0x00, 0x00, 0x00, 0x00, 0x00, 0x00,
  0x00, 0x00, 0x00, 0x00, 0x00, 0x00, 0x00, 0x00, 0x00, 0x00, 0x00, 0x00,
  0x00, 0x00, 0x00, 0x00, 0x00, 0x00, 0x00, 0x00, 0x00, 0x00, 0x00, 0x00,
  0x00, 0x00, 0x00, 0x00, 0x00, 0x00, 0x00, 0x00, 0x00, 0x00, 0x00, 0x00,
  0x00, 0x00, 0x00, 0x00, 0x00, 0x00, 0x00, 0x00, 0x00, 0x00, 0x00, 0x00,
  0x00, 0x00, 0x00, 0x00, 0x00, 0x00, 0x00, 0x00, 0x00, 0x00, 0x00, 0x00,
  0x00, 0x00, 0x00, 0x00, 0x00, 0x00, 0x00, 0x00, 0x00, 0x00, 0x00, 0x00,
  0x00, 0x00, 0x00, 0x00, 0x00, 0x00, 0x00, 0x00, 0x00, 0x00, 0x00, 0x00,
  0x00, 0x00, 0x00, 0x00, 0x00, 0x00, 0x00, 0x00, 0x00, 0x00, 0x00, 0x00,
  0x00, 0x00, 0x00, 0x00, 0x00, 0x00, 0x00, 0x00, 0x00, 0x00, 0x00, 0x00,
  0x00, 0x00, 0x00, 0x00, 0x00, 0x00, 0x00, 0x00, 0x00, 0x00, 0x00, 0x00,
  0x00, 0x00, 0x00, 0x00, 0x00, 0x00, 0x00, 0x00, 0x00, 0x00, 0x00, 0x00,
  0x00, 0x00, 0x00, 0x00, 0x00, 0x00, 0x00, 0x00, 0x00, 0x00, 0x00, 0x00,
  0x00, 0x00, 0x00, 0x00, 0x00, 0x00, 0x00, 0x00, 0x00, 0x00, 0x00, 0x00,
  0x00, 0x00, 0x00, 0x00, 0x00, 0x00, 0x00, 0x00, 0x00, 0x00, 0x00, 0x00,
  0x00, 0x00, 0x00, 0x00, 0x00, 0x00, 0x00, 0x00, 0x00, 0x00, 0x00, 0x00,
  0x00, 0x00, 0x00, 0x00, 0x00, 0x00, 0x00, 0x00, 0x00, 0x00, 0x00, 0x00,
  0x00, 0x00, 0x00, 0x00, 0x00, 0x00, 0x00, 0x00, 0x00, 0x00, 0x00, 0x00,
  0x00, 0x00, 0x00, 0x00, 0x00, 0x00, 0x00, 0x00, 0x00, 0x00, 0x00, 0x00,
  0x00, 0x00, 0x00, 0x00, 0x00, 0x00, 0x00, 0x00, 0x00, 0x00, 0x00, 0x00,
  0x00, 0x00, 0x00, 0x00, 0x00, 0x00, 0x00, 0x00, 0x00, 0x00, 0x00, 0x00,
  0x00, 0x00, 0x00, 0x00, 0x00, 0x00, 0x00, 0x00, 0x00, 0x00, 0x00, 0x00,
  0x00, 0x00, 0x00, 0x00, 0x00, 0x00, 0x00, 0x00, 0x00, 0x00, 0x00, 0x00,
  0x00, 0x00, 0x00, 0x00, 0x00, 0x00, 0x00, 0x00, 0x00, 0x00, 0x00, 0x00,
  0x00, 0x00, 0x00, 0x00, 0x40, 0x00, 0x00, 0x00, 0xbd, 0xf2, 0x0e, 0x3b,
  0xbe, 0x3e, 0x0d, 0x3b, 0xbd, 0x9b, 0x11, 0x3b, 0x3f, 0x22, 0x07, 0x3b,
  0x4f, 0x53, 0xf4, 0x3a, 0x36, 0xd2, 0x03, 0x3b, 0xfa, 0x33, 0x5e, 0x3b,
  0x4e, 0x64, 0x05, 0x3b, 0x5e, 0xd2, 0xe9, 0x3a, 0x24, 0xa5, 0x09, 0x3b,
  0xbb, 0x5f, 0x0a, 0x3b, 0xed, 0xb8, 0x07, 0x3b, 0x7a, 0xbc, 0x05, 0x3b,
  0x8b, 0x70, 0xfb, 0x3a, 0xca, 0xd5, 0x09, 0x3b, 0xbc, 0x6f, 0x03, 0x3b,
  0xee, 0x65, 0xe9, 0x3a, 0x51, 0x1c, 0x05, 0x3b, 0x78, 0x15, 0x0d, 0x3b,
  0x33, 0x4f, 0x04, 0x3b, 0x57, 0xa7, 0x05, 0x3b, 0xe9, 0x3c, 0x3f, 0x3b,
  0xae, 0x29, 0xfc, 0x3a, 0xc6, 0x00, 0x03, 0x3b, 0xf5, 0x6b, 0x45, 0x3b,
  0xf3, 0x99, 0x03, 0x3b, 0xed, 0x4d, 0xfa, 0x3a, 0x47, 0xb3, 0xfd, 0x3a,
  0x74, 0xd1, 0x05, 0x3b, 0x36, 0x57, 0x31, 0x3b, 0xdf, 0x19, 0x07, 0x3b,
  0xf7, 0xad, 0x0d, 0x3b, 0xc9, 0xdc, 0xed, 0x3a, 0x6c, 0xb5, 0x23, 0x3b,
  0x74, 0xab, 0xf8, 0x3a, 0x8a, 0x49, 0x19, 0x3b, 0x6e, 0xee, 0xff, 0x3a,
  0xa0, 0x32, 0x03, 0x3b, 0x49, 0xe9, 0x08, 0x3b, 0xd4, 0xca, 0x04, 0x3b,
  0x9b, 0x8a, 0x12, 0x3b, 0xea, 0xaf, 0x02, 0x3b, 0x9a, 0xd0, 0x07, 0x3b,
  0xc4, 0x51, 0x0a, 0x3b, 0xda, 0x24, 0xc1, 0x3a, 0x76, 0x16, 0x10, 0x3b,
  0x07, 0x18, 0x1f, 0x3b, 0x13, 0x48, 0x74, 0x3b, 0x41, 0x0f, 0xf6, 0x3a,
  0xac, 0x0a, 0x04, 0x3b, 0xb5, 0x31, 0xe0, 0x3a, 0x14, 0xdc, 0x19, 0x3b,
  0x86, 0x85, 0xfb, 0x3a, 0x30, 0xfc, 0xe8, 0x3a, 0xc3, 0xe7, 0x07, 0x3b,
  0x9f, 0x36, 0x40, 0x3b, 0x63, 0xc2, 0xf2, 0x3a, 0xf0, 0x99, 0x0f, 0x3b,
  0x9a, 0x6f, 0x15, 0x3b, 0x04, 0xa5, 0x04, 0x3b, 0x4b, 0xda, 0x08, 0x3b,
  0xf8, 0x7f, 0x09, 0x3b, 0xc7, 0x36, 0xf9, 0x3a, 0xab, 0x94, 0x06, 0x3b,
  0x12, 0x00, 0x00, 0x00, 0x74, 0x66, 0x6c, 0x2e, 0x70, 0x73, 0x65, 0x75,
  0x64, 0x6f, 0x5f, 0x71, 0x63, 0x6f, 0x6e, 0x73, 0x74, 0x31, 0x00, 0x00,
  0x02, 0x00, 0x00, 0x00, 0x40, 0x00, 0x00, 0x00, 0x18, 0x00, 0x00, 0x00,
  0xaa, 0xfc, 0xff, 0xff, 0x00, 0x00, 0x00, 0x01, 0x20, 0x00, 0x00, 0x00,
  0xb0, 0x01, 0x00, 0x00, 0x09, 0x00, 0x00, 0x00, 0x00, 0x00, 0x00, 0x09,
  0xbc, 0x01, 0x00, 0x00, 0x0c, 0x00, 0x0c, 0x00, 0x00, 0x00, 0x00, 0x00,
  0x08, 0x00, 0x04, 0x00, 0x0c, 0x00, 0x00, 0x00, 0x08, 0x00, 0x00, 0x00,
  0x08, 0x01, 0x00, 0x00, 0x20, 0x00, 0x00, 0x00, 0x00, 0x00, 0x00, 0x00,
  0x00, 0x00, 0x00, 0x00, 0x00, 0x00, 0x00, 0x00, 0x00, 0x00, 0x00, 0x00,
  0x00, 0x00, 0x00, 0x00, 0x00, 0x00, 0x00, 0x00, 0x00, 0x00, 0x00, 0x00,
  0x00, 0x00, 0x00, 0x00, 0x00, 0x00, 0x00, 0x00, 0x00, 0x00, 0x00, 0x00,
  0x00, 0x00, 0x00, 0x00, 0x00, 0x00, 0x00, 0x00, 0x00, 0x00, 0x00, 0x00,
  0x00, 0x00, 0x00, 0x00, 0x00, 0x00, 0x00, 0x00, 0x00, 0x00, 0x00, 0x00,
  0x00, 0x00, 0x00, 0x00, 0x00, 0x00, 0x00, 0x00, 0x00, 0x00, 0x00, 0x00,
  0x00, 0x00, 0x00, 0x00, 0x00, 0x00, 0x00, 0x00, 0x00, 0x00, 0x00, 0x00,
  0x00, 0x00, 0x00, 0x00, 0x00, 0x00, 0x00, 0x00, 0x00, 0x00, 0x00, 0x00,
  0x00, 0x00, 0x00, 0x00, 0x00, 0x00, 0x00, 0x00, 0x00, 0x00, 0x00, 0x00,
  0x00, 0x00, 0x00, 0x00, 0x00, 0x00, 0x00, 0x00, 0x00, 0x00, 0x00, 0x00,
  0x00, 0x00, 0x00, 0x00, 0x00, 0x00, 0x00, 0x00, 0x00, 0x00, 0x00, 0x00,
  0x00, 0x00, 0x00, 0x00, 0x00, 0x00, 0x00, 0x00, 0x00, 0x00, 0x00, 0x00,
  0x00, 0x00, 0x00, 0x00, 0x00, 0x00, 0x00, 0x00, 0x00, 0x00, 0x00, 0x00,
  0x00, 0x00, 0x00, 0x00, 0x00, 0x00, 0x00, 0x00, 0x00, 0x00, 0x00, 0x00,
  0x00, 0x00, 0x00, 0x00, 0x00, 0x00, 0x00, 0x00, 0x00, 0x00, 0x00, 0x00,
  0x00, 0x00, 0x00, 0x00, 0x00, 0x00, 0x00, 0x00, 0x00, 0x00, 0x00, 0x00,
  0x00, 0x00, 0x00, 0x00, 0x00, 0x00, 0x00, 0x00, 0x00, 0x00, 0x00, 0x00,
  0x00, 0x00, 0x00, 0x00, 0x00, 0x00, 0x00, 0x00, 0x00, 0x00, 0x00, 0x00,
  0x00, 0x00, 0x00, 0x00, 0x00, 0x00, 0x00, 0x00, 0x00, 0x00, 0x00, 0x00,
  0x00, 0x00, 0x00, 0x00, 0x00, 0x00, 0x00, 0x00, 0x00, 0x00, 0x00, 0x00,
  0x00, 0x00, 0x00, 0x00, 0x00, 0x00, 0x00, 0x00, 0x00, 0x00, 0x00, 0x00,
  0x20, 0x00, 0x00, 0x00, 0xc9, 0x2b, 0x12, 0x3b, 0xd1, 0x3f, 0xff, 0x3a,
  0x49, 0x5a, 0x00, 0x3b, 0x77, 0x0b, 0x39, 0x3b, 0x37, 0x1f, 0x8d, 0x3b,
  0xdf, 0x35, 0x30, 0x3b, 0x24, 0x73, 0x1f, 0x3b, 0xb0, 0x0f, 0x0d, 0x3b,
  0x75, 0xce, 0xfb, 0x3a, 0x64, 0x5d, 0x14, 0x3b, 0xf1, 0x1c, 0x2d, 0x3b,
  0x1c, 0x28, 0x8a, 0x3b, 0xef, 0x8a, 0x03, 0x3b, 0xf4, 0x5b, 0x18, 0x3b,
  0xa3, 0x89, 0x21, 0x3b, 0x14, 0xda, 0x5a, 0x3b, 0x8c, 0x29, 0x18, 0x3b,
  0x6f, 0xbe, 0x00, 0x3b, 0xef, 0x60, 0x45, 0x3b, 0x3d, 0xcf, 0x09, 0x3b,
  0x94, 0xd2, 0x0f, 0x3b, 0xea, 0xe0, 0xfc, 0x3a, 0xfe, 0x47, 0x08, 0x3b,
  0x5a, 0x2a, 0x0f, 0x3b, 0xf0, 0xf8, 0x05, 0x3b, 0xc6, 0x42, 0x0d, 0x3b,
  0x60, 0x95, 0x00, 0x3b, 0x0f, 0x70, 0xff, 0x3a, 0xd5, 0xbb, 0x39, 0x3b,
  0xad, 0xd6, 0x1a, 0x3b, 0xdf, 0x7d, 0x17, 0x3b, 0xef, 0x20, 0x49, 0x3b,
  0x11, 0x00, 0x00, 0x00, 0x74, 0x66, 0x6c, 0x2e, 0x70, 0x73, 0x65, 0x75,
  0x64, 0x6f, 0x5f, 0x71, 0x63, 0x6f, 0x6e, 0x73, 0x74, 0x00, 0x00, 0x00,
  0x02, 0x00, 0x00, 0x00, 0x20, 0x00, 0x00, 0x00, 0x40, 0x00, 0x00, 0x00,
  0x52, 0xff, 0xff, 0xff, 0x00, 0x00, 0x00, 0x01, 0x10, 0x00, 0x00, 0x00,
  0x10, 0x00, 0x00, 0x00, 0x08, 0x00, 0x00, 0x00, 0x1c, 0x00, 0x00, 0x00,
  0x10, 0xfe, 0xff, 0xff, 0x0f, 0x00, 0x00, 0x00, 0x61, 0x72, 0x69, 0x74,
  0x68, 0x2e, 0x63, 0x6f, 0x6e, 0x73, 0x74, 0x61, 0x6e, 0x74, 0x36, 0x00,
  0x02, 0x00, 0x00, 0x00, 0x01, 0x00, 0x00, 0x00, 0x20, 0x00, 0x00, 0x00,
  0x8e, 0xff, 0xff, 0xff, 0x00, 0x00, 0x00, 0x01, 0x10, 0x00, 0x00, 0x00,
  0x10, 0x00, 0x00, 0x00, 0x07, 0x00, 0x00, 0x00, 0x1c, 0x00, 0x00, 0x00,
  0x4c, 0xfe, 0xff, 0xff, 0x0f, 0x00, 0x00, 0x00, 0x61, 0x72, 0x69, 0x74,
  0x68, 0x2e, 0x63, 0x6f, 0x6e, 0x73, 0x74, 0x61, 0x6e, 0x74, 0x35, 0x00,
  0x01, 0x00, 0x00, 0x00, 0x01, 0x00, 0x00, 0x00, 0xc6, 0xff, 0xff, 0xff,
  0x00, 0x00, 0x00, 0x01, 0x10, 0x00, 0x00, 0x00, 0x10, 0x00, 0x00, 0x00,
  0x06, 0x00, 0x00, 0x00, 0x1c, 0x00, 0x00, 0x00, 0x84, 0xfe, 0xff, 0xff,
  0x0f, 0x00, 0x00, 0x00, 0x61, 0x72, 0x69, 0x74, 0x68, 0x2e, 0x63, 0x6f,
  0x6e, 0x73, 0x74, 0x61, 0x6e, 0x74, 0x34, 0x00, 0x01, 0x00, 0x00, 0x00,
  0x40, 0x00, 0x00, 0x00, 0x00, 0x00, 0x16, 0x00, 0x18, 0x00, 0x14, 0x00,
  0x00, 0x00, 0x10, 0x00, 0x0c, 0x00, 0x08, 0x00, 0x00, 0x00, 0x00, 0x00,
  0x00, 0x00, 0x07, 0x00, 0x16, 0x00, 0x00, 0x00, 0x00, 0x00, 0x00, 0x01,
  0x10, 0x00, 0x00, 0x00, 0x10, 0x00, 0x00, 0x00, 0x05, 0x00, 0x00, 0x00,
  0x1c, 0x00, 0x00, 0x00, 0xd4, 0xfe, 0xff, 0xff, 0x0f, 0x00, 0x00, 0x00,
  0x61, 0x72, 0x69, 0x74, 0x68, 0x2e, 0x63, 0x6f, 0x6e, 0x73, 0x74, 0x61,
  0x6e, 0x74, 0x33, 0x00, 0x01, 0x00, 0x00, 0x00, 0x20, 0x00, 0x00, 0x00,
  0x86, 0xff, 0xff, 0xff, 0x00, 0x00, 0x00, 0x01, 0x14, 0x00, 0x00, 0x00,
  0x14, 0x00, 0x00, 0x00, 0x04, 0x00, 0x00, 0x00, 0x00, 0x00, 0x00, 0x02,
  0x1c, 0x00, 0x00, 0x00, 0x10, 0xff, 0xff, 0xff, 0x0f, 0x00, 0x00, 0x00,
  0x61, 0x72, 0x69, 0x74, 0x68, 0x2e, 0x63, 0x6f, 0x6e, 0x73, 0x74, 0x61,
  0x6e, 0x74, 0x32, 0x00, 0x01, 0x00, 0x00, 0x00, 0x01, 0x00, 0x00, 0x00,
  0xc2, 0xff, 0xff, 0xff, 0x00, 0x00, 0x00, 0x01, 0x14, 0x00, 0x00, 0x00,
  0x14, 0x00, 0x00, 0x00, 0x03, 0x00, 0x00, 0x00, 0x00, 0x00, 0x00, 0x02,
  0x1c, 0x00, 0x00, 0x00, 0x4c, 0xff, 0xff, 0xff, 0x0f, 0x00, 0x00, 0x00,
  0x61, 0x72, 0x69, 0x74, 0x68, 0x2e, 0x63, 0x6f, 0x6e, 0x73, 0x74, 0x61,
  0x6e, 0x74, 0x31, 0x00, 0x01, 0x00, 0x00, 0x00, 0x01, 0x00, 0x00, 0x00,
  0x00, 0x00, 0x16, 0x00, 0x1c, 0x00, 0x18, 0x00, 0x17, 0x00, 0x10, 0x00,
  0x0c, 0x00, 0x08, 0x00, 0x00, 0x00, 0x00, 0x00, 0x00, 0x00, 0x07, 0x00,
  0x16, 0x00, 0x00, 0x00, 0x00, 0x00, 0x00, 0x01, 0x14, 0x00, 0x00, 0x00,
  0x14, 0x00, 0x00, 0x00, 0x02, 0x00, 0x00, 0x00, 0x00, 0x00, 0x00, 0x02,
  0x1c, 0x00, 0x00, 0x00, 0xa0, 0xff, 0xff, 0xff, 0x0e, 0x00, 0x00, 0x00,
  0x61, 0x72, 0x69, 0x74, 0x68, 0x2e, 0x63, 0x6f, 0x6e, 0x73, 0x74, 0x61,
  0x6e, 0x74, 0x00, 0x00, 0x00, 0x00, 0x00, 0x00, 0x00, 0x00, 0x16, 0x00,
  0x1c, 0x00, 0x18, 0x00, 0x00, 0x00, 0x14, 0x00, 0x10, 0x00, 0x0c, 0x00,
  0x00, 0x00, 0x00, 0x00, 0x08, 0x00, 0x07, 0x00, 0x16, 0x00, 0x00, 0x00,
  0x00, 0x00, 0x00, 0x01, 0x14, 0x00, 0x00, 0x00, 0x24, 0x00, 0x00, 0x00,
  0x24, 0x00, 0x00, 0x00, 0x01, 0x00, 0x00, 0x00, 0x44, 0x00, 0x00, 0x00,
  0x03, 0x00, 0x00, 0x00, 0xff, 0xff, 0xff, 0xff, 0x18, 0x00, 0x00, 0x00,
  0x01, 0x00, 0x00, 0x00, 0x04, 0x00, 0x04, 0x00, 0x04, 0x00, 0x00, 0x00,
  0x21, 0x00, 0x00, 0x00, 0x73, 0x65, 0x72, 0x76, 0x69, 0x6e, 0x67, 0x5f,
  0x64, 0x65, 0x66, 0x61, 0x75, 0x6c, 0x74, 0x5f, 0x6b, 0x65, 0x72, 0x61,
  0x73, 0x5f, 0x74, 0x65, 0x6e, 0x73, 0x6f, 0x72, 0x5f, 0x31, 0x37, 0x3a,
  0x30, 0x00, 0x00, 0x00, 0x03, 0x00, 0x00, 0x00, 0x01, 0x00, 0x00, 0x00,
  0x18, 0x00, 0x00, 0x00, 0x01, 0x00, 0x00, 0x00, 0x05, 0x00, 0x00, 0x00,
  0x60, 0x00, 0x00, 0x00, 0x44, 0x00, 0x00, 0x00, 0x34, 0x00, 0x00, 0x00,
  0x24, 0x00, 0x00, 0x00, 0x10, 0x00, 0x00, 0x00, 0x0c, 0x00, 0x10, 0x00,
  0x0f, 0x00, 0x00, 0x00, 0x08, 0x00, 0x04, 0x00, 0x0c, 0x00, 0x00, 0x00,
  0x09, 0x00, 0x00, 0x00, 0x0c, 0x00, 0x00, 0x00, 0x00, 0x00, 0x00, 0x09,
  0xdc, 0xff, 0xff, 0xff, 0x16, 0x00, 0x00, 0x00, 0x00, 0x00, 0x00, 0x16,
  0xe8, 0xff, 0xff, 0xff, 0x53, 0x00, 0x00, 0x00, 0x00, 0x00, 0x00, 0x53,
  0xf4, 0xff, 0xff, 0xff, 0x2d, 0x00, 0x00, 0x00, 0x00, 0x00, 0x00, 0x2d,
  0x0c, 0x00, 0x0c, 0x00, 0x0b, 0x00, 0x00, 0x00, 0x00, 0x00, 0x04, 0x00,
  0x0c, 0x00, 0x00, 0x00, 0x4d, 0x00, 0x00, 0x00, 0x00, 0x00, 0x00, 0x4d
};
unsigned int dense_bgl_model_tflite_len = 8184;
